{
  "version": "1.0",
  "truncation": null,
  "padding": null,
  "added_tokens": [
    {
      "id": 0,
      "content": "<pad>",
      "single_word": false,
      "lstrip": false,
      "rstrip": false,
      "normalized": false,
      "special": true
    },
    {
      "id": 1,
      "content": "<eos>",
      "single_word": false,
      "lstrip": false,
      "rstrip": false,
      "normalized": false,
      "special": true
    },
    {
      "id": 2,
      "content": "<unk>",
      "single_word": false,
      "lstrip": false,
      "rstrip": false,
      "normalized": false,
      "special": true
    }
  ],
  "normalizer": null,
  "pre_tokenizer": {
    "type": "ByteLevel",
    "add_prefix_space": true,
    "trim_offsets": true,
    "use_regex": true
  },
  "post_processor": null,
  "decoder": {
    "type": "ByteLevel",
    "add_prefix_space": true,
    "trim_offsets": true,
    "use_regex": true
  },
  "model": {
    "type": "BPE",
    "dropout": null,
    "unk_token": "<unk>",
    "continuing_subword_prefix": null,
    "end_of_word_suffix": null,
    "fuse_unk": false,
    "byte_fallback": false,
    "ignore_merges": false,
    "vocab": {
      "<pad>": 0,
      "<eos>": 1,
      "<unk>": 2,
      "!": 3,
      "\"": 4,
      "#": 5,
      "$": 6,
      "%": 7,
      "&": 8,
      "'": 9,
      "(": 10,
      ")": 11,
      "*": 12,
      "+": 13,
      ",": 14,
      "-": 15,
      ".": 16,
      "/": 17,
      "0": 18,
      "1": 19,
      "2": 20,
      "3": 21,
      "4": 22,
      "5": 23,
      "6": 24,
      "7": 25,
      "8": 26,
      "9": 27,
      ":": 28,
      ";": 29,
      "<": 30,
      "=": 31,
      ">": 32,
      "?": 33,
      "@": 34,
      "A": 35,
      "B": 36,
      "C": 37,
      "D": 38,
      "E": 39,
      "F": 40,
      "G": 41,
      "H": 42,
      "I": 43,
      "J": 44,
      "K": 45,
      "L": 46,
      "M": 47,
      "N": 48,
      "O": 49,
      "P": 50,
      "Q": 51,
      "R": 52,
      "S": 53,
      "T": 54,
      "U": 55,
      "V": 56,
      "W": 57,
      "X": 58,
      "Y": 59,
      "Z": 60,
      "[": 61,
      "\\": 62,
      "]": 63,
      "^": 64,
      "_": 65,
      "`": 66,
      "a": 67,
      "b": 68,
      "c": 69,
      "d": 70,
      "e": 71,
      "f": 72,
      "g": 73,
      "h": 74,
      "i": 75,
      "j": 76,
      "k": 77,
      "l": 78,
      "m": 79,
      "n": 80,
      "o": 81,
      "p": 82,
      "q": 83,
      "r": 84,
      "s": 85,
      "t": 86,
      "u": 87,
      "v": 88,
      "w": 89,
      "x": 90,
      "y": 91,
      "z": 92,
      "{": 93,
      "|": 94,
      "}": 95,
      "~": 96,
      "¡": 97,
      "¢": 98,
      "£": 99,
      "¤": 100,
      "¥": 101,
      "¦": 102,
      "§": 103,
      "¨": 104,
      "©": 105,
      "ª": 106,
      "«": 107,
      "¬": 108,
      "®": 109,
      "¯": 110,
      "°": 111,
      "±": 112,
      "²": 113,
      "³": 114,
      "´": 115,
      "µ": 116,
      "¶": 117,
      "·": 118,
      "¸": 119,
      "¹": 120,
      "º": 121,
      "»": 122,
      "¼": 123,
      "½": 124,
      "¾": 125,
      "¿": 126,
      "Â": 127,
      "Ã": 128,
      "Ä": 129,
      "Å": 130,
      "Æ": 131,
      "Ç": 132,
      "É": 133,
      "Ì": 134,
      "Î": 135,
      "Ï": 136,
      "Ð": 137,
      "Ñ": 138,
      "×": 139,
      "Ø": 140,
      "Ù": 141,
      "Ú": 142,
      "Û": 143,
      "à": 144,
      "á": 145,
      "â": 146,
      "ã": 147,
      "ä": 148,
      "å": 149,
      "æ": 150,
      "ç": 151,
      "è": 152,
      "é": 153,
      "ê": 154,
      "ë": 155,
      "ì": 156,
      "í": 157,
      "ï": 158,
      "ð": 159,
      "Đ": 160,
      "Ġ": 161,
      "Ģ": 162,
      "ģ": 163,
      "Ĥ": 164,
      "ĥ": 165,
      "Ħ": 166,
      "ħ": 167,
      "Ĩ": 168,
      "ĩ": 169,
      "Ī": 170,
      "ī": 171,
      "Ĭ": 172,
      "ĭ": 173,
      "Į": 174,
      "į": 175,
      "İ": 176,
      "ı": 177,
      "Ĳ": 178,
      "ĳ": 179,
      "Ĵ": 180,
      "ĵ": 181,
      "Ķ": 182,
      "ķ": 183,
      "ĸ": 184,
      "Ĺ": 185,
      "ĺ": 186,
      "Ļ": 187,
      "ļ": 188,
      "Ľ": 189,
      "ľ": 190,
      "Ŀ": 191,
      "ŀ": 192,
      "Ł": 193,
      "ł": 194,
      "Ń": 195,
      "in": 196,
      "er": 197,
      "on": 198,
      "Ġt": 199,
      "an": 200,
      "or": 201,
      "es": 202,
      "at": 203,
      "ĠS": 204,
      "ĠA": 205,
      "ing": 206,
      "ar": 207,
      "en": 208,
      "it": 209,
      "ĠT": 210,
      "he": 211,
      "ĠC": 212,
      "al": 213,
      "ou": 214,
      "st": 215,
      "ĠH": 216,
      "re": 217,
      "le": 218,
      "Ġf": 219,
      "ĠP": 220,
      "Ġa": 221,
      "ĠM": 222,
      "ro": 223,
      "ic": 224,
      "ĠW": 225,
      "Ġto": 226,
      "ĠI": 227,
      "ed": 228,
      "ĠD": 229,
      "Ġs": 230,
      "Ġc": 231,
      "ĠB": 232,
      "ion": 233,
      "Ġo": 234,
      "Ġw": 235,
      "ac": 236,
      "ow": 237,
      "is": 238,
      "ĠF": 239,
      "ĠR": 240,
      "Ġin": 241,
      "Ġthe": 242,
      "âĢ": 243,
      "and": 244,
      "Ġb": 245,
      "Ġp": 246,
      "et": 247,
      "ĠG": 248,
      "om": 249,
      "Ġof": 250,
      "il": 251,
      "Ġd": 252,
      "ĠL": 253,
      "ĠE": 254,
      "Ġm": 255,
      "ent": 256,
      "as": 257,
      "ec": 258,
      "el": 259,
      "ĠN": 260,
      "Ġfor": 261,
      "oo": 262,
      "Ġand": 263,
      "id": 264,
      "ers": 265,
      "am": 266,
      "ĠO": 267,
      "ig": 268,
      "ĠThe": 269,
      "ut": 270,
      "ĠU": 271,
      "iv": 272,
      "us": 273,
      "ol": 274,
      "ot": 275,
      "our": 276,
      "pp": 277,
      "im": 278,
      "ad": 279,
      "ur": 280,
      "ĠIn": 281,
      "ter": 282,
      "ith": 283,
      "ation": 284,
      "ĠHN": 285,
      "ay": 286,
      "ĠâĢ": 287,
      "ch": 288,
      "Ġl": 289,
      "Ġon": 290,
      "ĠWh": 291,
      "ew": 292,
      "Ġn": 293,
      "ĠSt": 294,
      "un": 295,
      "Ġh": 296,
      "ag": 297,
      "ir": 298,
      "Ġy": 299,
      "ce": 300,
      "est": 301,
      "em": 302,
      "Ġwith": 303,
      "ess": 304,
      "Ġg": 305,
      "op": 306,
      "Ġ(": 307,
      "ev": 308,
      "âĢĻ": 309,
      "art": 310,
      "ack": 311,
      "ul": 312,
      "20": 313,
      "Ġre": 314,
      "eb": 315,
      "ĠV": 316,
      "od": 317,
      "'s": 318,
      "ĠY": 319,
      "ak": 320,
      "ĠSh": 321,
      "ra": 322,
      "ĠHow": 323,
      "ĠAs": 324,
      "ct": 325,
      "ĠâĢĵ": 326,
      "Ġst": 327,
      "ear": 328,
      "ab": 329,
      "oc": 330,
      "ĠJ": 331,
      "ly": 332,
      "up": 333,
      "th": 334,
      "av": 335,
      "Ġis": 336,
      "ist": 337,
      "are": 338,
      "ver": 339,
      "if": 340,
      "ĠAn": 341,
      "ity": 342,
      "ts": 343,
      "rom": 344,
      "ĠAsk": 345,
      "um": 346,
      "ate": 347,
      "ine": 348,
      "ip": 349,
      "ill": 350,
      "os": 351,
      "Ġth": 352,
      "ld": 353,
      "ĠPro": 354,
      "ive": 355,
      "omp": 356,
      "ex": 357,
      "ĠRe": 358,
      "Ġv": 359,
      "ĠCh": 360,
      "ork": 361,
      "ap": 362,
      "ook": 363,
      "Ġ1": 364,
      "ect": 365,
      "oun": 366,
      "ĠK": 367,
      "ide": 368,
      "Ġan": 369,
      "ĠTh": 370,
      "ub": 371,
      "ure": 372,
      "igh": 373,
      "out": 374,
      "Ġpro": 375,
      "ĠApp": 376,
      "og": 377,
      "Ġr": 378,
      "ĠShow": 379,
      "ust": 380,
      "ies": 381,
      "ĠGoo": 382,
      "ob": 383,
      "ĠIs": 384,
      "201": 385,
      "all": 386,
      "one": 387,
      "ment": 388,
      "gle": 389,
      "ial": 390,
      "ia": 391,
      "ĠWhat": 392,
      "Ġfrom": 393,
      "pl": 394,
      "ain": 395,
      "age": 396,
      "Ġyour": 397,
      "ang": 398,
      "ore": 399,
      "ĠGoogle": 400,
      "ast": 401,
      "ost": 402,
      "ard": 403,
      "ind": 404,
      "end": 405,
      "ĠCon": 406,
      "ort": 407,
      "Ġyou": 408,
      "of": 409,
      "qu": 410,
      "ĠNew": 411,
      "Ġus": 412,
      "ov": 413,
      "gr": 414,
      "ib": 415,
      "ĠWhy": 416,
      "iz": 417,
      "ech": 418,
      "ee": 419,
      "ant": 420,
      "ry": 421,
      "Ġat": 422,
      "ail": 423,
      "ell": 424,
      "act": 425,
      "se": 426,
      "ice": 427,
      "ĠEn": 428,
      "Ġbe": 429,
      "ĠEx": 430,
      "orm": 431,
      "ff": 432,
      "ign": 433,
      "pt": 434,
      "ight": 435,
      "ata": 436,
      "ans": 437,
      "ark": 438,
      "Ġit": 439,
      "Ġby": 440,
      "00": 441,
      "du": 442,
      "Ġ-": 443,
      "ik": 444,
      "ĠSc": 445,
      "pen": 446,
      "ould": 447,
      "Ġcon": 448,
      "ode": 449,
      "ite": 450,
      "Ġas": 451,
      "ĠTr": 452,
      "able": 453,
      "oft": 454,
      "ĠCl": 455,
      "ock": 456,
      "ĠComp": 457,
      "ud": 458,
      "ire": 459,
      "ĠSp": 460,
      "ions": 461,
      "ĠUn": 462,
      "ake": 463,
      "ile": 464,
      "Ġsh": 465,
      "ence": 466,
      "uil": 467,
      "evel": 468,
      "ĠOn": 469,
      "Ġwh": 470,
      "artup": 471,
      "ord": 472,
      "ound": 473,
      "Ġex": 474,
      "ace": 475,
      "ome": 476,
      "ree": 477,
      "Ġapp": 478,
      "Ġle": 479,
      "ĠBe": 480,
      "Ġ[": 481,
      "ĠYou": 482,
      "Ġ$": 483,
      "evelop": 484,
      "ere": 485,
      "ĠAm": 486,
      "ning": 487,
      "ge": 488,
      "ass": 489,
      "ph": 490,
      "Ġch": 491,
      "Ġ3": 492,
      "Ġdo": 493,
      "ĠAl": 494,
      "Ġnew": 495,
      "ĠWeb": 496,
      "ical": 497,
      "Ġ2": 498,
      "ave": 499,
      "form": 500,
      "ime": 501,
      "ory": 502,
      "ĠPl": 503,
      "ase": 504,
      "ach": 505,
      "tern": 506,
      "Ġcomp": 507,
      "ĠYour": 508,
      "Ġi": 509,
      "ĠPr": 510,
      "ance": 511,
      "ics": 512,
      "own": 513,
      "ware": 514,
      "cc": 515,
      "per": 516,
      "reat": 517,
      "bout": 518,
      "ens": 519,
      "eed": 520,
      "omm": 521,
      "ug": 522,
      "iew": 523,
      "Ġare": 524,
      "erv": 525,
      "row": 526,
      "gram": 527,
      "uild": 528,
      "cr": 529,
      "ame": 530,
      "ber": 531,
      "Ġe": 532,
      "Ġtr": 533,
      "ĠUs": 534,
      "ĠApple": 535,
      "yst": 536,
      "ĠFac": 537,
      "orld": 538,
      "ĠAr": 539,
      "ual": 540,
      "ebook": 541,
      "ĠAd": 542,
      "ros": 543,
      "Ġk": 544,
      "ĠBl": 545,
      "Ġ201": 546,
      "ink": 547,
      "ĠâĢľ": 548,
      "âĢĿ": 549,
      "ĠQ": 550,
      "ting": 551,
      "Ġj": 552,
      "ous": 553,
      "Ġ'": 554,
      "earch": 555,
      "ays": 556,
      "ations": 557,
      "ong": 558,
      "ary": 559,
      "oin": 560,
      "ideo": 561,
      "Ġpl": 562,
      "eal": 563,
      "esign": 564,
      "ors": 565,
      "ction": 566,
      "ick": 567,
      "pr": 568,
      "ĠDo": 569,
      "ey": 570,
      "Ġthat": 571,
      "ĠInt": 572,
      "ĠTw": 573,
      "ĠFacebook": 574,
      "ĠCan": 575,
      "yth": 576,
      "enc": 577,
      "ased": 578,
      "ix": 579,
      "ue": 580,
      "Ġsp": 581,
      "ian": 582,
      "ient": 583,
      "ĠOpen": 584,
      "und": 585,
      "Ġint": 586,
      "imp": 587,
      "Ġcl": 588,
      "ike": 589,
      "line": 590,
      "irst": 591,
      "az": 592,
      "ĠMic": 593,
      "ource": 594,
      "ĠData": 595,
      "ef": 596,
      "ystem": 597,
      "ash": 598,
      "ets": 599,
      "ipt": 600,
      "ox": 601,
      "Ġcan": 602,
      "ĠTech": 603,
      "'t": 604,
      "ext": 605,
      "ons": 606,
      "Ġpr": 607,
      "ck": 608,
      "ject": 609,
      "ĠTo": 610,
      "Ġ5": 611,
      "etw": 612,
      "Ġ20": 613,
      "Ġnot": 614,
      "ĠAre": 615,
      "over": 616,
      "ool": 617,
      "ĠIm": 618,
      "ath": 619,
      "cript": 620,
      "gramm": 621,
      "ĠAnd": 622,
      "aw": 623,
      "ĠFor": 624,
      "Ġsc": 625,
      "Ġor": 626,
      "ult": 627,
      "lic": 628,
      "hone": 629,
      "pd": 630,
      "ĠIt": 631,
      "ble": 632,
      "Ġabout": 633,
      "ĠWe": 634,
      "Ġad": 635,
      "Ġweb": 636,
      "ĠJav": 637,
      "oftware": 638,
      "ated": 639,
      "gh": 640,
      "Ġhe": 641,
      "ĠMan": 642,
      "aun": 643,
      "ĠFr": 644,
      "ish": 645,
      "gine": 646,
      "ener": 647,
      "ĠStartup": 648,
      "ood": 649,
      "Ġwork": 650,
      "ough": 651,
      "ĠJava": 652,
      "ve": 653,
      "oud": 654,
      "ĠNot": 655,
      "Ġup": 656,
      "rit": 657,
      "ows": 658,
      "oy": 659,
      "ings": 660,
      "yp": 661,
      "ĠRes": 662,
      "ĠLear": 663,
      "Ġ4": 664,
      "isc": 665,
      "ern": 666,
      "ower": 667,
      "olog": 668,
      "ever": 669,
      "ĠDevelop": 670,
      "OS": 671,
      "ĠAI": 672,
      "ise": 673,
      "ĠZ": 674,
      "io": 675,
      "ines": 676,
      "ĠiP": 677,
      "ating": 678,
      "ĠSec": 679,
      "ys": 680,
      "ĠHack": 681,
      "ents": 682,
      "ĠUS": 683,
      "oll": 684,
      "ĠEm": 685,
      "ep": 686,
      "ĠMicros": 687,
      "ĠQu": 688,
      "fer": 689,
      "ices": 690,
      "ĠWork": 691,
      "ĠRev": 692,
      "ade": 693,
      "ĠLe": 694,
      "iness": 695,
      "duct": 696,
      "ates": 697,
      "arket": 698,
      "Ġsu": 699,
      "aunch": 700,
      "Ġun": 701,
      "ience": 702,
      "ars": 703,
      "ĠInd": 704,
      "anc": 705,
      "itter": 706,
      "ĠCont": 707,
      "ĠBuild": 708,
      "aking": 709,
      "les": 710,
      "Ġdata": 711,
      "atch": 712,
      "lect": 713,
      "ython": 714,
      "Ġover": 715,
      "rypt": 716,
      "rain": 717,
      "ank": 718,
      "ĠPh": 719,
      "ll": 720,
      "etwork": 721,
      "ition": 722,
      "ital": 723,
      "eep": 724,
      "urity": 725,
      "old": 726,
      "ond": 727,
      "ternet": 728,
      "Ġcont": 729,
      "eop": 730,
      "Ġal": 731,
      "ĠâĢĺ": 732,
      "Ġinto": 733,
      "any": 734,
      "ĠTwitter": 735,
      "ĠMicrosoft": 736,
      "view": 737,
      "ron": 738,
      "ux": 739,
      "ĠGo": 740,
      "pdf": 741,
      "ĠMy": 742,
      "Ġstartup": 743,
      "usiness": 744,
      "PI": 745,
      "roid": 746,
      "raph": 747,
      "ĠFl": 748,
      "ĠWorld": 749,
      "19": 750,
      "Ġen": 751,
      "app": 752,
      "Ġem": 753,
      "ution": 754,
      "ie": 755,
      "Ġbl": 756,
      "com": 757,
      "ife": 758,
      "ĠAmaz": 759,
      "its": 760,
      "fter": 761,
      "now": 762,
      "ages": 763,
      "eople": 764,
      "port": 765,
      "ocial": 766,
      "Ġres": 767,
      "ĠX": 768,
      "gramming": 769,
      "Ġdevelop": 770,
      "ific": 771,
      "ĠAut": 772,
      "ator": 773,
      "obile": 774,
      "Ġout": 775,
      "ric": 776,
      "ina": 777,
      "Script": 778,
      "fl": 779,
      "Ġtech": 780,
      "erm": 781,
      "rop": 782,
      "ative": 783,
      "ĠDr": 784,
      "eek": 785,
      "iss": 786,
      "Ġwe": 787,
      "ĠPython": 788,
      "ĠUsing": 789,
      "ĠSu": 790,
      "ears": 791,
      "ĠAmazon": 792,
      "Ġvs": 793,
      "Ġmy": 794,
      "ĠDesign": 795,
      "ists": 796,
      "ĠMe": 797,
      "ĠInter": 798,
      "let": 799,
      "Ġ10": 800,
      "acy": 801,
      "ĠRec": 802,
      "ru": 803,
      "elf": 804,
      "Ġusing": 805,
      "ms": 806,
      "ĠGet": 807,
      "ĠAt": 808,
      "ures": 809,
      "red": 810,
      "ĠAndroid": 811,
      "ax": 812,
      "ale": 813,
      "Ġmore": 814,
      "uture": 815,
      "Ġqu": 816,
      "yn": 817,
      "ĠAPI": 818,
      "angu": 819,
      "ĠMod": 820,
      "ility": 821,
      "ĠBit": 822,
      "ĠFree": 823,
      "ange": 824,
      "arg": 825,
      "ĠReal": 826,
      "Ġhas": 827,
      "ĠLin": 828,
      "ount": 829,
      "Ġits": 830,
      "Ġopen": 831,
      "etter": 832,
      "Ġhave": 833,
      "ĠDe": 834,
      "eric": 835,
      "urn": 836,
      "Ġ\"": 837,
      "oad": 838,
      "edia": 839,
      "ĠGit": 840,
      "ccess": 841,
      "ok": 842,
      "Ġuse": 843,
      "ĠOr": 844,
      "imple": 845,
      "ĠComm": 846,
      "Ġwill": 847,
      "ĠComput": 848,
      "Ġsec": 849,
      "akes": 850,
      "arn": 851,
      "ervice": 852,
      "ology": 853,
      "ĠInternet": 854,
      "led": 855,
      "eat": 856,
      "wn": 857,
      "ict": 858,
      "ement": 859,
      "ĠWind": 860,
      "Ġall": 861,
      "ĠChina": 862,
      "vest": 863,
      "ĠCode": 864,
      "ery": 865,
      "ĠWith": 866,
      "Ġman": 867,
      "ĠAmeric": 868,
      "Ġ7": 869,
      "Ġro": 870,
      "alk": 871,
      "ĠPer": 872,
      "ĠSm": 873,
      "Ġget": 874,
      "ĠThat": 875,
      "oard": 876,
      "ering": 877,
      "ĠGu": 878,
      "ĠCloud": 879,
      "ĠJavaScript": 880,
      "coin": 881,
      "ĠWill": 882,
      "ĠAg": 883,
      "ream": 884,
      "Ġnow": 885,
      "vent": 886,
      "Ġ6": 887,
      "ĠBr": 888,
      "ames": 889,
      "ĠUp": 890,
      "Ġoff": 891,
      "eam": 892,
      "ects": 893,
      "eur": 894,
      "ular": 895,
      "ich": 896,
      "ĠBig": 897,
      "rows": 898,
      "js": 899,
      "ĠRed": 900,
      "ĠGr": 901,
      "Ġag": 902,
      "pport": 903,
      "ible": 904,
      "ism": 905,
      "ful": 906,
      "atform": 907,
      "eth": 908,
      "ĠiPhone": 909,
      "ency": 910,
      "Ġinter": 911,
      "ivers": 912,
      "Ġde": 913,
      "ips": 914,
      "ĠEngine": 915,
      "ĠSoftware": 916,
      "ĠOff": 917,
      "hed": 918,
      "ĠFirst": 919,
      "ĠHT": 920,
      "Ġworld": 921,
      "ces": 922,
      "amp": 923,
      "ploy": 924,
      "ĠLinux": 925,
      "ner": 926,
      "uss": 927,
      "ĠWindows": 928,
      "video": 929,
      "Ġfirst": 930,
      "ĠMon": 931,
      "SA": 932,
      "ĠPart": 933,
      "Ġcode": 934,
      "els": 935,
      "ĠOut": 936,
      "Ġhow": 937,
      "Ġtool": 938,
      "Ġme": 939,
      "ĠLearning": 940,
      "SS": 941,
      "Ġbuild": 942,
      "Ġthan": 943,
      "ĠEver": 944,
      "rodu": 945,
      "erver": 946,
      "ustom": 947,
      "der": 948,
      "ĠMus": 949,
      "ally": 950,
      "ins": 951,
      "ĠStr": 952,
      "anguage": 953,
      "ĠEl": 954,
      "ĠVal": 955,
      "ĠOne": 956,
      "ĠAll": 957,
      "int": 958,
      "ĠMac": 959,
      "ose": 960,
      "Ġ8": 961,
      "Ġrec": 962,
      "ĠBitcoin": 963,
      "..": 964,
      "ram": 965,
      "less": 966,
      "ĠAir": 967,
      "ĠSw": 968,
      "af": 969,
      "ĠSystem": 970,
      "ails": 971,
      "ĠBest": 972,
      "oss": 973,
      "ĠMore": 974,
      "ier": 975,
      "ĠHas": 976,
      "Ġdown": 977,
      "ĠTest": 978,
      "erson": 979,
      "QL": 980,
      "Ġrele": 981,
      "Ġar": 982,
      "Ġcomm": 983,
      "igital": 984,
      "EO": 985,
      "onom": 986,
      "ize": 987,
      "achine": 988,
      "ĠCom": 989,
      "Ġbut": 990,
      "ely": 991,
      "olution": 992,
      "cing": 993,
      "ull": 994,
      "Ġlike": 995,
      "att": 996,
      "orn": 997,
      "ĠNo": 998,
      "200": 999,
      "Ġtest": 1000,
      "ert": 1001,
      "ious": 1002,
      "Ġwhat": 1003,
      "ĠVis": 1004,
      "illion": 1005,
      "aster": 1006,
      "ater": 1007,
      "ovid": 1008,
      "itor": 1009,
      "ites": 1010,
      "ote": 1011,
      "ments": 1012,
      "ps": 1013,
      "Ġgo": 1014,
      "ization": 1015,
      "ĠOnline": 1016,
      "Ġever": 1017,
      "uman": 1018,
      "ibr": 1019,
      "ĠCol": 1020,
      "ĠMarket": 1021,
      "hip": 1022,
      "uck": 1023,
      "ĠPre": 1024,
      "ĠBack": 1025,
      "cess": 1026,
      "ĠTechn": 1027,
      "als": 1028,
      "cl": 1029,
      "ĠTime": 1030,
      "Ġmod": 1031,
      "Ġafter": 1032,
      "ĠDon": 1033,
      "ĠUse": 1034,
      "ants": 1035,
      "ĠImp": 1036,
      "gy": 1037,
      "Ġhack": 1038,
      "ove": 1039,
      "Ø§": 1040,
      "oth": 1041,
      "ĠChe": 1042,
      "ĠMake": 1043,
      "ives": 1044,
      "ĠSe": 1045,
      "ied": 1046,
      "ĠAbout": 1047,
      "ĠCovid": 1048,
      "Ġsystem": 1049,
      "ĠStud": 1050,
      "Ġper": 1051,
      "ities": 1052,
      "ĠNetwork": 1053,
      "ĠNews": 1054,
      "ify": 1055,
      "ĠProgramming": 1056,
      "Ġdr": 1057,
      "000": 1058,
      "ĠOver": 1059,
      "ĠRele": 1060,
      "ger": 1061,
      "Ġthis": 1062,
      "ĠBusiness": 1063,
      "urr": 1064,
      "ĠiOS": 1065,
      "Ġmake": 1066,
      "Ġ&": 1067,
      "Ġtime": 1068,
      "arm": 1069,
      "ooks": 1070,
      "read": 1071,
      "Ġback": 1072,
      "Ġshould": 1073,
      "ĠArt": 1074,
      "ym": 1075,
      "ret": 1076,
      "Ġfree": 1077,
      "ĠInst": 1078,
      "iving": 1079,
      "ĠSur": 1080,
      "ĠGl": 1081,
      "ĠThis": 1082,
      "ype": 1083,
      "ĠTop": 1084,
      "ML": 1085,
      "Ġim": 1086,
      "Ġdesign": 1087,
      "ĠIns": 1088,
      "ĠShould": 1089,
      "ĠJob": 1090,
      "rough": 1091,
      "uy": 1092,
      "Ġsm": 1093,
      "ĠNow": 1094,
      "ĠOb": 1095,
      "ĠWho": 1096,
      "tack": 1097,
      "ĠFire": 1098,
      "oot": 1099,
      "Ġacc": 1100,
      "ral": 1101,
      "ĠReact": 1102,
      "ĠExpl": 1103,
      "Ġph": 1104,
      "ĠEd": 1105,
      "Ġdoes": 1106,
      "ft": 1107,
      "itch": 1108,
      "ĠGener": 1109,
      "ĠEv": 1110,
      "Ġsoftware": 1111,
      "ational": 1112,
      "ĠWhen": 1113,
      "noun": 1114,
      "rib": 1115,
      "ĠRem": 1116,
      "iles": 1117,
      "Ġneed": 1118,
      "Ġimp": 1119,
      "ĠPost": 1120,
      "ends": 1121,
      "Ġpeople": 1122,
      "rome": 1123,
      "ĠManag": 1124,
      "ĠSocial": 1125,
      "ĠCr": 1126,
      "rowser": 1127,
      "Ġway": 1128,
      "Ġaut": 1129,
      "ĠDown": 1130,
      "een": 1131,
      "ework": 1132,
      "ĠReview": 1133,
      "ĠDis": 1134,
      "la": 1135,
      "Ġfl": 1136,
      "ĠSecurity": 1137,
      "ĠSearch": 1138,
      "ĠGame": 1139,
      "ots": 1140,
      "ĠAnal": 1141,
      "ĠSil": 1142,
      "ĠMobile": 1143,
      "ĠProduct": 1144,
      "ĠBuilding": 1145,
      "ĠVideo": 1146,
      "oney": 1147,
      "ĠTool": 1148,
      "Ġfind": 1149,
      "Ġlaunch": 1150,
      "site": 1151,
      "reate": 1152,
      "ĠMin": 1153,
      "icon": 1154,
      "ĠDec": 1155,
      "ublic": 1156,
      "ley": 1157,
      "Hub": 1158,
      "ĠLaunch": 1159,
      "Ġrev": 1160,
      "formance": 1161,
      "ah": 1162,
      "dr": 1163,
      "Ġ|": 1164,
      "ont": 1165,
      "ĠFrom": 1166,
      "Ġ9": 1167,
      "ĠSl": 1168,
      "ability": 1169,
      "ĠCal": 1170,
      "rol": 1171,
      "ĠIntrodu": 1172,
      "ĠSource": 1173,
      "ivacy": 1174,
      "ainst": 1175,
      "ĠTrans": 1176,
      "pos": 1177,
      "ri": 1178,
      "ĠHel": 1179,
      "ĠNeed": 1180,
      "Ġany": 1181,
      "Ġev": 1182,
      "ĠSk": 1183,
      "ĠDev": 1184,
      "ĠRead": 1185,
      "Ġhel": 1186,
      "Ġsource": 1187,
      "Ġcould": 1188,
      "ruct": 1189,
      "Ġso": 1190,
      "ĠHigh": 1191,
      "ĠPol": 1192,
      "Ġtheir": 1193,
      "Ġdec": 1194,
      "ĠCar": 1195,
      "ĠLearn": 1196,
      "uring": 1197,
      "ther": 1198,
      "ds": 1199,
      "ole": 1200,
      "top": 1201,
      "ĠFuture": 1202,
      "Ġrem": 1203,
      "ases": 1204,
      "istory": 1205,
      "ift": 1206,
      "ero": 1207,
      "ĠHe": 1208,
      "ĠFound": 1209,
      "ĠRob": 1210,
      "ube": 1211,
      "ĠPlay": 1212,
      "ĠCons": 1213,
      "ĠPar": 1214,
      "Ġyears": 1215,
      "ands": 1216,
      "Ġonline": 1217,
      "irus": 1218,
      "uper": 1219,
      "Ġone": 1220,
      "In": 1221,
      "air": 1222,
      "ĠIts": 1223,
      "ibrary": 1224,
      "Ġmon": 1225,
      "blem": 1226,
      "uc": 1227,
      "ĠRuss": 1228,
      "ervices": 1229,
      "Ġjob": 1230,
      "ĠGitHub": 1231,
      "ĠAc": 1232,
      "arning": 1233,
      "eta": 1234,
      "ium": 1235,
      "pect": 1236,
      "imate": 1237,
      "ouse": 1238,
      "ĠDisc": 1239,
      "reen": 1240,
      "Ġfound": 1241,
      "uilt": 1242,
      "box": 1243,
      "ĠPower": 1244,
      "Ġsays": 1245,
      "Ġcom": 1246,
      "Ġjust": 1247,
      "ĠDoes": 1248,
      "ĠId": 1249,
      "ident": 1250,
      "jects": 1251,
      "Ġbest": 1252,
      "ĠFin": 1253,
      "atab": 1254,
      "Ġstud": 1255,
      "Ġour": 1256,
      "ĠTes": 1257,
      "ĠLife": 1258,
      "ession": 1259,
      "hem": 1260,
      "Ġown": 1261,
      "unt": 1262,
      "Ġcomput": 1263,
      "WS": 1264,
      "ĠHave": 1265,
      "rov": 1266,
      "atter": 1267,
      "ĠEu": 1268,
      "ĠGuide": 1269,
      "Ġengine": 1270,
      "ĠSol": 1271,
      "Ġlearn": 1272,
      "ĠStart": 1273,
      "Ġmost": 1274,
      "use": 1275,
      "Ġ202": 1276,
      "ĠResearch": 1277,
      "ises": 1278,
      "anding": 1279,
      "ĠProt": 1280,
      "ĠUnder": 1281,
      "ann": 1282,
      "Ġproject": 1283,
      "day": 1284,
      "anies": 1285,
      "reak": 1286,
      "ĠPay": 1287,
      "ĠIP": 1288,
      "irt": 1289,
      "Ġread": 1290,
      "Ġstart": 1291,
      "ĠFind": 1292,
      "ffect": 1293,
      "ĠCEO": 1294,
      "ĠSpace": 1295,
      "load": 1296,
      "ward": 1297,
      "ues": 1298,
      "ĠCreat": 1299,
      "ĠPat": 1300,
      "Ġpre": 1301,
      "Ġstr": 1302,
      "Ġcr": 1303,
      "Ġdis": 1304,
      "Ġgood": 1305,
      "tr": 1306,
      "Ġwas": 1307,
      "ĠRub": 1308,
      "ĠOS": 1309,
      "ized": 1310,
      "gor": 1311,
      "ĠAWS": 1312,
      "ĠDevelopment": 1313,
      "ĠMachine": 1314,
      "ĠTesla": 1315,
      "ones": 1316,
      "orth": 1317,
      "ĠAcc": 1318,
      "aps": 1319,
      "Ġapps": 1320,
      "Ġnetwork": 1321,
      "umb": 1322,
      "ĠChrome": 1323,
      "under": 1324,
      "ging": 1325,
      "Ġno": 1326,
      "ising": 1327,
      "Ġgame": 1328,
      "board": 1329,
      "ĠInc": 1330,
      "ump": 1331,
      "ĠProject": 1332,
      "obal": 1333,
      "Ġtrans": 1334,
      "Ġ19": 1335,
      "ĠScience": 1336,
      "Ġac": 1337,
      "Ġcons": 1338,
      "ĠGood": 1339,
      "ffic": 1340,
      "ales": 1341,
      "Ġgr": 1342,
      "ĠOf": 1343,
      "Ġhelp": 1344,
      "ĠDigital": 1345,
      "Ġproduct": 1346,
      "tle": 1347,
      "oup": 1348,
      "repr": 1349,
      "ĠLaw": 1350,
      "eneur": 1351,
      "way": 1352,
      "aring": 1353,
      "ĠDeep": 1354,
      "ĠJust": 1355,
      "ograph": 1356,
      "ĠNe": 1357,
      "ĠAct": 1358,
      "ĠDeb": 1359,
      "Ġdon": 1360,
      "ĠExper": 1361,
      "overn": 1362,
      "por": 1363,
      "atic": 1364,
      "ush": 1365,
      "ĠApps": 1366,
      "ĠScient": 1367,
      "ĠTe": 1368,
      "Ġreal": 1369,
      "ealth": 1370,
      "Ġbr": 1371,
      "Ġra": 1372,
      "lex": 1373,
      "chool": 1374,
      "ĠHTML": 1375,
      "repreneur": 1376,
      "ĠCrypt": 1377,
      "Ġdev": 1378,
      "ĠEc": 1379,
      "ords": 1380,
      "Ġtechn": 1381,
      "ling": 1382,
      "ĠTra": 1383,
      "Ġcol": 1384,
      "ĠNext": 1385,
      "ĠAutom": 1386,
      "ks": 1387,
      "man": 1388,
      "ĠService": 1389,
      "ĠUK": 1390,
      "ĠPeople": 1391,
      "Ġind": 1392,
      "ired": 1393,
      "yt": 1394,
      "arth": 1395,
      "ĠComputer": 1396,
      "ĠVisual": 1397,
      "ross": 1398,
      "gorith": 1399,
      "oom": 1400,
      "ĠGP": 1401,
      "Ġmarket": 1402,
      "vel": 1403,
      "ĠFun": 1404,
      "Ġins": 1405,
      "ĠEnt": 1406,
      "ĠIndia": 1407,
      "ĠEurop": 1408,
      "ĠMay": 1409,
      "Ġbusiness": 1410,
      "ĠWhere": 1411,
      "Ġmin": 1412,
      "Ġexper": 1413,
      "ersonal": 1414,
      "ĠRun": 1415,
      "ĠInvest": 1416,
      "Ġvideo": 1417,
      "Ġmanag": 1418,
      "ced": 1419,
      "Ġgener": 1420,
      "ĠMost": 1421,
      "ivity": 1422,
      "ourn": 1423,
      "Ġwithout": 1424,
      "acking": 1425,
      "ĠSilicon": 1426,
      "Ġpay": 1427,
      "ĠRuby": 1428,
      "ĠNet": 1429,
      "Ġsupport": 1430,
      "50": 1431,
      "ten": 1432,
      "ĠSo": 1433,
      "off": 1434,
      "Ġcompany": 1435,
      "Ġknow": 1436,
      "ĠCy": 1437,
      "Ġbec": 1438,
      "down": 1439,
      "lish": 1440,
      "ness": 1441,
      "sh": 1442,
      "St": 1443,
      "gest": 1444,
      "Ġsocial": 1445,
      "ĠOur": 1446,
      "ĠCap": 1447,
      "ĠBetter": 1448,
      "ids": 1449,
      "iffer": 1450,
      "ribut": 1451,
      "atabase": 1452,
      "ĠWar": 1453,
      "ĠNode": 1454,
      "ĠOpt": 1455,
      "ĠEurope": 1456,
      "uch": 1457,
      "ats": 1458,
      "asy": 1459,
      "aces": 1460,
      "ysis": 1461,
      "++": 1462,
      "Ġsur": 1463,
      "Ġdisc": 1464,
      "ĠLess": 1465,
      "aper": 1466,
      "ustry": 1467,
      "ellig": 1468,
      "ĠSimple": 1469,
      "ĠCor": 1470,
      "Ġlife": 1471,
      "Ġusers": 1472,
      "ĠPlan": 1473,
      "ĠHelp": 1474,
      "nect": 1475,
      "Ġ100": 1476,
      "ĠKey": 1477,
      "ights": 1478,
      "ĠPhot": 1479,
      "Ġtw": 1480,
      "ĠCSS": 1481,
      "Ġhigh": 1482,
      "ĠAny": 1483,
      "riting": 1484,
      "ĠCould": 1485,
      "lection": 1486,
      "ĠDay": 1487,
      "Ġsearch": 1488,
      "Ġbig": 1489,
      "iel": 1490,
      "Ġpart": 1491,
      "Ġlook": 1492,
      "cept": 1493,
      "Ġwhy": 1494,
      "ĠDeveloper": 1495,
      "Ġend": 1496,
      "ari": 1497,
      "Ġcreat": 1498,
      "ĠKnow": 1499,
      "Ġwho": 1500,
      "ĠBlog": 1501,
      "oh": 1502,
      "vers": 1503,
      "Ġfuture": 1504,
      "Ġent": 1505,
      "ĠRust": 1506,
      "ĠAss": 1507,
      "irect": 1508,
      "Ġwhen": 1509,
      "esk": 1510,
      "ĠMo": 1511,
      "Ġmay": 1512,
      "Ġmade": 1513,
      "ĠIntel": 1514,
      "ĠStartups": 1515,
      "Ġpower": 1516,
      "ĠList": 1517,
      "ours": 1518,
      "ĠLook": 1519,
      "eve": 1520,
      "ĠEnd": 1521,
      "ĠBlock": 1522,
      "eries": 1523,
      "ĠServer": 1524,
      "Ġsome": 1525,
      "ĠLike": 1526,
      "uts": 1527,
      "unity": 1528,
      "Ġprot": 1529,
      "antum": 1530,
      "ĠValley": 1531,
      "ited": 1532,
      "formation": 1533,
      "fore": 1534,
      "rite": 1535,
      "ential": 1536,
      "ĠNA": 1537,
      "other": 1538,
      "tens": 1539,
      "inal": 1540,
      "ĠSub": 1541,
      "pping": 1542,
      "ĠApplic": 1543,
      "Ġplan": 1544,
      "ĠMedia": 1545,
      "Ġpass": 1546,
      "ĠMark": 1547,
      "ĠMaking": 1548,
      "ider": 1549,
      "Ġprogramming": 1550,
      "ĠHacker": 1551,
      "ĠAmerica": 1552,
      "Tube": 1553,
      "Ġcustom": 1554,
      "Ġmobile": 1555,
      "Ġvis": 1556,
      "allen": 1557,
      "Ġsecurity": 1558,
      "10": 1559,
      "ĠAfter": 1560,
      "overnment": 1561,
      "ĠFund": 1562,
      "Ġnext": 1563,
      "ird": 1564,
      "ything": 1565,
      "ĠAp": 1566,
      "Ġcar": 1567,
      "Ġinvest": 1568,
      "ĠGraph": 1569,
      "ĠInf": 1570,
      "ires": 1571,
      "Ġexpl": 1572,
      "ĠSmart": 1573,
      "Ġunder": 1574,
      "ĠIf": 1575,
      "ĠLive": 1576,
      "ĠAdv": 1577,
      "ĠDef": 1578,
      "ton": 1579,
      "ĠLink": 1580,
      "Ġyear": 1581,
      "ocum": 1582,
      "ĠAnnoun": 1583,
      "iqu": 1584,
      "ĠMet": 1585,
      "Ġif": 1586,
      "ĠDel": 1587,
      "ĠFast": 1588,
      "Ġbetter": 1589,
      "Ġpat": 1590,
      "ĠGreat": 1591,
      "iet": 1592,
      "Ġpol": 1593,
      "ung": 1594,
      "ĠJobs": 1595,
      "IT": 1596,
      "aid": 1597,
      "Ġservice": 1598,
      "iver": 1599,
      "Ġlearning": 1600,
      "roll": 1601,
      "ĠWay": 1602,
      "acc": 1603,
      "ĠUber": 1604,
      "ules": 1605,
      "hind": 1606,
      "ĠElect": 1607,
      "imes": 1608,
      "umm": 1609,
      "ĠPlatform": 1610,
      "to": 1611,
      "ĠHome": 1612,
      "Ġsite": 1613,
      "Ġgl": 1614,
      "br": 1615,
      "Ġam": 1616,
      "vert": 1617,
      "ĠTechnology": 1618,
      "ĠWatch": 1619,
      "ams": 1620,
      "Ġlanguage": 1621,
      "ĠChat": 1622,
      "alls": 1623,
      "Ġreleased": 1624,
      "irtual": 1625,
      "DB": 1626,
      "gan": 1627,
      "land": 1628,
      "rong": 1629,
      "Ġart": 1630,
      "Ġsol": 1631,
      "omen": 1632,
      "Ġrun": 1633,
      "oint": 1634,
      "back": 1635,
      "fox": 1636,
      "ense": 1637,
      "ĠWord": 1638,
      "ĠLanguage": 1639,
      "etween": 1640,
      "iting": 1641,
      "ĠCustom": 1642,
      "ĠMov": 1643,
      "ison": 1644,
      "iring": 1645,
      "ĠiPad": 1646,
      "ĠModel": 1647,
      "Ġav": 1648,
      "ĠProf": 1649,
      "ĠBlack": 1650,
      "inese": 1651,
      "based": 1652,
      "arge": 1653,
      "ĠGrow": 1654,
      "ĠYouTube": 1655,
      "nov": 1656,
      "ĠMem": 1657,
      "ĠRet": 1658,
      "ically": 1659,
      "ĠEvery": 1660,
      "Ø§Ù": 1661,
      "for": 1662,
      "gin": 1663,
      "ty": 1664,
      "Ġed": 1665,
      "ards": 1666,
      "gress": 1667,
      "idd": 1668,
      "oding": 1669,
      "oj": 1670,
      "ĠDem": 1671,
      "Ġche": 1672,
      "ĠBrain": 1673,
      "ĠLong": 1674,
      "aut": 1675,
      "sc": 1676,
      "Ġ#": 1677,
      "ĠChinese": 1678,
      "elligence": 1679,
      "ators": 1680,
      "ĠBec": 1681,
      "ĠBook": 1682,
      "Ġpost": 1683,
      "etect": 1684,
      "Ġgu": 1685,
      "izing": 1686,
      "aj": 1687,
      "time": 1688,
      "Ġteam": 1689,
      "lear": 1690,
      "ogn": 1691,
      "Ġplatform": 1692,
      "ĠHard": 1693,
      "ĠHuman": 1694,
      "ĠForm": 1695,
      "ĠThink": 1696,
      "ĠThings": 1697,
      "press": 1698,
      "aa": 1699,
      "ai": 1700,
      "ĠTips": 1701,
      "ĠMult": 1702,
      "Ġinc": 1703,
      "omain": 1704,
      "Ġblock": 1705,
      "cast": 1706,
      "Ġset": 1707,
      "ims": 1708,
      "chain": 1709,
      "ĠFirefox": 1710,
      "rup": 1711,
      "ĠMar": 1712,
      "ĠBen": 1713,
      "Ġthere": 1714,
      "Ġnews": 1715,
      "ON": 1716,
      "Ġsl": 1717,
      "Ġweek": 1718,
      "ĠRails": 1719,
      "ees": 1720,
      "eak": 1721,
      "Ġthey": 1722,
      "amer": 1723,
      "iled": 1724,
      "Ġevery": 1725,
      "SQL": 1726,
      "mark": 1727,
      "ĠSuper": 1728,
      "ĠTV": 1729,
      "ĠHere": 1730,
      "ĠReg": 1731,
      "eg": 1732,
      "Ġcor": 1733,
      "Ġinst": 1734,
      "ĠEarth": 1735,
      "Ġlaw": 1736,
      "ĠScal": 1737,
      "err": 1738,
      "onav": 1739,
      "ily": 1740,
      "ĠArch": 1741,
      "ĠInterview": 1742,
      "onavirus": 1743,
      "ĠCreate": 1744,
      "ĠHistory": 1745,
      "Ġdef": 1746,
      "ES": 1747,
      "opy": 1748,
      "ills": 1749,
      "Ġthink": 1750,
      "ocker": 1751,
      "eals": 1752,
      "Ġtra": 1753,
      "ĠAv": 1754,
      "ĠPass": 1755,
      "ĠSome": 1756,
      "raft": 1757,
      "Ġwebsite": 1758,
      "TP": 1759,
      "ĠUpd": 1760,
      "ivate": 1761,
      "Ġcloud": 1762,
      "Ġec": 1763,
      "orage": 1764,
      "ĠSet": 1765,
      "arter": 1766,
      "Ġdid": 1767,
      "Ġlibrary": 1768,
      "ĠAnt": 1769,
      "ĠThan": 1770,
      "HP": 1771,
      "ories": 1772,
      "iment": 1773,
      "ĠStore": 1774,
      "ody": 1775,
      "ĠJS": 1776,
      "Ġ/": 1777,
      "Ġwould": 1778,
      "ĠUnivers": 1779,
      "Ġapplic": 1780,
      "Ġdevelopment": 1781,
      "ĠPerformance": 1782,
      "ĠMusk": 1783,
      "ĠEconom": 1784,
      "Ġide": 1785,
      "ese": 1786,
      "ĠDist": 1787,
      "ults": 1788,
      "Ġkey": 1789,
      "ched": 1790,
      "ĠSelf": 1791,
      "ĠState": 1792,
      "ĠIde": 1793,
      "ĠCo": 1794,
      "Ġbased": 1795,
      "ersion": 1796,
      "ĠYear": 1797,
      "uit": 1798,
      "uff": 1799,
      "ĠTeam": 1800,
      "Ġsub": 1801,
      "ading": 1802,
      "apan": 1803,
      "ĠGetting": 1804,
      "Ġrob": 1805,
      "ĠLab": 1806,
      "Ġanal": 1807,
      "...": 1808,
      "ĠNASA": 1809,
      "ss": 1810,
      "oring": 1811,
      "ĠAb": 1812,
      "ĠCour": 1813,
      "Ġact": 1814,
      "ĠMed": 1815,
      "ask": 1816,
      "ocal": 1817,
      "Ġchange": 1818,
      "Ġstartups": 1819,
      "ior": 1820,
      "Ġ0": 1821,
      "Ġfun": 1822,
      "Ġbrowser": 1823,
      "ĠAng": 1824,
      "Ġagainst": 1825,
      "erc": 1826,
      "itect": 1827,
      "ĠHealth": 1828,
      "Ġserver": 1829,
      "Ġstill": 1830,
      "urrency": 1831,
      "ĠMag": 1832,
      "icial": 1833,
      "âĢĵ": 1834,
      "ĠGames": 1835,
      "iven": 1836,
      "ads": 1837,
      "Ġlist": 1838,
      "ending": 1839,
      "ĠMeet": 1840,
      "ructure": 1841,
      "ĠWik": 1842,
      "ĠLog": 1843,
      "ĠConf": 1844,
      "ference": 1845,
      "ress": 1846,
      "vid": 1847,
      "ĠRel": 1848,
      "rap": 1849,
      "ĠJapan": 1850,
      "active": 1851,
      "lete": 1852,
      "ĠMusic": 1853,
      "ĠSim": 1854,
      "ĠSign": 1855,
      "ĠCent": 1856,
      "ĠBank": 1857,
      "ision": 1858,
      "Ġbuilt": 1859,
      "ĠCompany": 1860,
      "ĠLeg": 1861,
      "ET": 1862,
      "etes": 1863,
      "ailable": 1864,
      "Ġelect": 1865,
      "YC": 1866,
      "ĠText": 1867,
      "ouch": 1868,
      "isk": 1869,
      "ĠUI": 1870,
      "ĠYears": 1871,
      "iforn": 1872,
      "Ġchang": 1873,
      "Ġdevelopers": 1874,
      "ĠAmerican": 1875,
      "IS": 1876,
      "ges": 1877,
      "yle": 1878,
      "Ġfin": 1879,
      "rok": 1880,
      "Ġphone": 1881,
      "Ġdist": 1882,
      "ĠStar": 1883,
      "Ġvia": 1884,
      "ĠMarketing": 1885,
      "ĠCaliforn": 1886,
      "egr": 1887,
      "ĠDN": 1888,
      "Ġwant": 1889,
      "ĠReport": 1890,
      "ulner": 1891,
      "Ġresearch": 1892,
      "ĠEntrepreneur": 1893,
      "mail": 1894,
      "Ġmov": 1895,
      "Ġlog": 1896,
      "elling": 1897,
      "ramework": 1898,
      "ĠStudy": 1899,
      "SD": 1900,
      "by": 1901,
      "ĠSn": 1902,
      "ication": 1903,
      "Ġsimple": 1904,
      "ute": 1905,
      "utor": 1906,
      "ĠPrivacy": 1907,
      "ĠTwo": 1908,
      "Ġ2020": 1909,
      "face": 1910,
      "me": 1911,
      "Ġtake": 1912,
      "Ġold": 1913,
      "ised": 1914,
      "ĠYork": 1915,
      "place": 1916,
      "ells": 1917,
      "Ġ200": 1918,
      "oice": 1919,
      "ality": 1920,
      "ache": 1921,
      "Ġinf": 1922,
      "ason": 1923,
      "ĠOwn": 1924,
      "ources": 1925,
      "ĠKub": 1926,
      "ĠReleased": 1927,
      "ĠScientists": 1928,
      "'re": 1929,
      "book": 1930,
      "orts": 1931,
      "ĠAM": 1932,
      "Ġprof": 1933,
      "oid": 1934,
      "ĠTalk": 1935,
      "rove": 1936,
      "ĠGen": 1937,
      "emic": 1938,
      "Ġval": 1939,
      "Ġ11": 1940,
      "ences": 1941,
      "ĠFram": 1942,
      "ĠTesting": 1943,
      "ĠHy": 1944,
      "ĠWant": 1945,
      "Ġsign": 1946,
      "ild": 1947,
      "phone": 1948,
      "ĠAdd": 1949,
      "blems": 1950,
      "ane": 1951,
      "ĠPHP": 1952,
      "Ġcrypt": 1953,
      "ĠBill": 1954,
      "Ġrel": 1955,
      "aving": 1956,
      "tension": 1957,
      "ocument": 1958,
      "aaS": 1959,
      "ĠCalifornia": 1960,
      "ĠAust": 1961,
      "Ġfeat": 1962,
      "ĠMess": 1963,
      "Ġonly": 1964,
      "ĠStory": 1965,
      "Ġhard": 1966,
      "ĠProcess": 1967,
      "2015": 1968,
      "Ġused": 1969,
      "ĠClass": 1970,
      "The": 1971,
      "Ġ.": 1972,
      "ĠWeek": 1973,
      "Ġform": 1974,
      "Ġcompanies": 1975,
      "ĠManagement": 1976,
      "Ġlaunches": 1977,
      "ytics": 1978,
      "bit": 1979,
      "ĠÙ": 1980,
      "itive": 1981,
      "ĠTake": 1982,
      "ĠHand": 1983,
      "Ġframework": 1984,
      "ĠPi": 1985,
      "Ġhapp": 1986,
      "opular": 1987,
      "Ġreview": 1988,
      "ought": 1989,
      "ification": 1990,
      "Ġbuilding": 1991,
      "Ġstudy": 1992,
      "ration": 1993,
      "ony": 1994,
      "iler": 1995,
      "ury": 1996,
      "ĠStop": 1997,
      "irm": 1998,
      "ulation": 1999,
      "ĠProblem": 2000,
      "Ġadv": 2001,
      "eural": 2002,
      "esktop": 2003,
      "rupt": 2004,
      "net": 2005,
      "ract": 2006,
      "ĠPort": 2007,
      "Ġreg": 2008,
      "Ġattack": 2009,
      "ĠSmall": 2010,
      "PA": 2011,
      "ause": 2012,
      "dit": 2013,
      "ingle": 2014,
      "ĠMoney": 2015,
      "ĠDocker": 2016,
      "Ġopt": 2017,
      "uth": 2018,
      "ĠSpot": 2019,
      "ĠDevelopers": 2020,
      "flow": 2021,
      "Ġphot": 2022,
      "ĠFramework": 2023,
      "ĠSays": 2024,
      "ĠSaf": 2025,
      "Ġfund": 2026,
      "Ġtop": 2027,
      "Ġmult": 2028,
      "Ġret": 2029,
      "Ġreport": 2030,
      "ĠVC": 2031,
      "Ġprocess": 2032,
      "duction": 2033,
      "Ġconf": 2034,
      "ĠPrin": 2035,
      "Ø§Ø": 2036,
      "ahoo": 2037,
      "utorial": 2038,
      "lin": 2039,
      "uz": 2040,
      "ĠHapp": 2041,
      "Ġab": 2042,
      "ĠWin": 2043,
      "ĠDid": 2044,
      "ĠBre": 2045,
      "Ġday": 2046,
      "Ġlong": 2047,
      "Ġemploy": 2048,
      "ĠRussia": 2049,
      "Ġcomputer": 2050,
      "gorithm": 2051,
      "ners": 2052,
      "esh": 2053,
      "Ġfast": 2054,
      "Ġob": 2055,
      "Ġdem": 2056,
      "Ġmedia": 2057,
      "ideos": 2058,
      "Ġspace": 2059,
      "ĠTools": 2060,
      "ĠOptim": 2061,
      "ule": 2062,
      "ĠBut": 2063,
      "ĠBuy": 2064,
      "Ġlive": 2065,
      "ope": 2066,
      "early": 2067,
      "ĠPres": 2068,
      "ather": 2069,
      "ernetes": 2070,
      "sites": 2071,
      "word": 2072,
      "lean": 2073,
      "Ġfiles": 2074,
      "ĠLet": 2075,
      "ternative": 2076,
      "Ġdeveloper": 2077,
      "ĠIntroducing": 2078,
      "ajor": 2079,
      "ief": 2080,
      "ĠPublic": 2081,
      "Ġother": 2082,
      "ĠGe": 2083,
      "ĠLight": 2084,
      "Ġless": 2085,
      "iff": 2086,
      "ĠChang": 2087,
      "ĠEng": 2088,
      "ĠElon": 2089,
      "ky": 2090,
      "Ġse": 2091,
      "Ġpublic": 2092,
      "iron": 2093,
      "ĠTrump": 2094,
      "redict": 2095,
      "cer": 2096,
      "aging": 2097,
      "ĠYahoo": 2098,
      "berg": 2099,
      "Ġemail": 2100,
      "Ġsmart": 2101,
      "ĠKubernetes": 2102,
      "GP": 2103,
      "source": 2104,
      "ĠFre": 2105,
      "ott": 2106,
      "Ġhuman": 2107,
      "raw": 2108,
      "2014": 2109,
      "Ġbeen": 2110,
      "ossible": 2111,
      "ohn": 2112,
      "ler": 2113,
      "ature": 2114,
      "Ġself": 2115,
      "ural": 2116,
      "estions": 2117,
      "ape": 2118,
      "ublish": 2119,
      "ĠAuth": 2120,
      "uclear": 2121,
      "ipp": 2122,
      "sp": 2123,
      "Ġmus": 2124,
      "asp": 2125,
      "Ġhis": 2126,
      "Ġhome": 2127,
      "Ġ12": 2128,
      "ĠUser": 2129,
      "ributed": 2130,
      "con": 2131,
      "cul": 2132,
      "get": 2133,
      "ĠCase": 2134,
      "lement": 2135,
      "ĠPC": 2136,
      "ĠBrowser": 2137,
      "ĠEr": 2138,
      "Ġmoney": 2139,
      "ĠThey": 2140,
      "Ġthrough": 2141,
      "ĠControl": 2142,
      "ĠAttack": 2143,
      "AR": 2144,
      "ĠRa": 2145,
      "Ġpar": 2146,
      "ĠEth": 2147,
      "ĠSteve": 2148,
      "Ġbeing": 2149,
      "Ġworking": 2150,
      "ĠSupport": 2151,
      "ĠUnderst": 2152,
      "ĠSan": 2153,
      "ĠWriting": 2154,
      "Ġmem": 2155,
      "ĠOper": 2156,
      "2017": 2157,
      "Ġ30": 2158,
      "Ġprivacy": 2159,
      "ĠHTTP": 2160,
      "ĠSurv": 2161,
      "ĠRobot": 2162,
      "oor": 2163,
      "ĠSQL": 2164,
      "ĠSchool": 2165,
      "ĠFed": 2166,
      "ils": 2167,
      "Ġrequ": 2168,
      "Ġplay": 2169,
      "ĠGlobal": 2170,
      "ĠLaunches": 2171,
      "ĠLessons": 2172,
      "JS": 2173,
      "bin": 2174,
      "ĠCur": 2175,
      "Ġmess": 2176,
      "Ġmakes": 2177,
      "agram": 2178,
      "ĠKill": 2179,
      "ĠEnc": 2180,
      "ollow": 2181,
      "ifferent": 2182,
      "leg": 2183,
      "ĠMat": 2184,
      "roach": 2185,
      "Ġbuy": 2186,
      "Ġlink": 2187,
      "icks": 2188,
      "gre": 2189,
      "ĠAf": 2190,
      "Ġsw": 2191,
      "eter": 2192,
      "Ġmuch": 2193,
      "usion": 2194,
      "ipe": 2195,
      "Ġproblem": 2196,
      "Ġass": 2197,
      "berry": 2198,
      "Ġturn": 2199,
      "orr": 2200,
      "ĠProm": 2201,
      "ĠPhone": 2202,
      "ĠBad": 2203,
      "ĠFeat": 2204,
      "ĠNSA": 2205,
      "ĠUb": 2206,
      "imal": 2207,
      "ables": 2208,
      "Ġ15": 2209,
      "ender": 2210,
      "199": 2211,
      "ission": 2212,
      "Ġautom": 2213,
      "Ġmonth": 2214,
      "sw": 2215,
      "Ġdeb": 2216,
      "ĠEU": 2217,
      "rast": 2218,
      "Ġ2017": 2219,
      "overy": 2220,
      "Ġscient": 2221,
      "isco": 2222,
      "ĠComputing": 2223,
      "ĠEngineering": 2224,
      "ĠIntroduction": 2225,
      "viron": 2226,
      "ĠTurn": 2227,
      "ĠOld": 2228,
      "Ġhand": 2229,
      "Ġright": 2230,
      "anger": 2231,
      "ĠHouse": 2232,
      "ĠWas": 2233,
      "ĠJohn": 2234,
      "ategy": 2235,
      "ĠChallen": 2236,
      "ĠUsers": 2237,
      "Ġblog": 2238,
      "ĠSuccess": 2239,
      "untu": 2240,
      "Ġenc": 2241,
      "Ġaccess": 2242,
      "Ġbrain": 2243,
      "ĠGerm": 2244,
      "flix": 2245,
      "reet": 2246,
      "oop": 2247,
      "ama": 2248,
      "ĠStack": 2249,
      "ocus": 2250,
      "ains": 2251,
      "Ġ2012": 2252,
      "Ġscience": 2253,
      "ĠQuantum": 2254,
      "ificial": 2255,
      "ĠAnalysis": 2256,
      "ojure": 2257,
      "acing": 2258,
      "Ġbetween": 2259,
      "aders": 2260,
      "ĠStat": 2261,
      "Ġgreat": 2262,
      "ĠVirtual": 2263,
      "umber": 2264,
      "illa": 2265,
      "umbers": 2266,
      "'m": 2267,
      "Ġte": 2268,
      "Ġtalk": 2269,
      "ĠDrop": 2270,
      "isis": 2271,
      "aming": 2272,
      "Ġprojects": 2273,
      "ĠSecret": 2274,
      "ĠModern": 2275,
      "11": 2276,
      "iny": 2277,
      "ĠTheir": 2278,
      "abor": 2279,
      "ĠProgramm": 2280,
      "ĠRep": 2281,
      "Ġupd": 2282,
      "reaming": 2283,
      "ĠCyber": 2284,
      "ield": 2285,
      "uzz": 2286,
      "RM": 2287,
      "ians": 2288,
      "ĠBas": 2289,
      "ember": 2290,
      "ĠProgram": 2291,
      "2018": 2292,
      "Ġ50": 2293,
      "ĠCheck": 2294,
      "ĠInside": 2295,
      "Ġtechnology": 2296,
      "be": 2297,
      "Ġtext": 2298,
      "aries": 2299,
      "icles": 2300,
      "ĠIT": 2301,
      "Ġsk": 2302,
      "Ġcost": 2303,
      "ulture": 2304,
      "attery": 2305,
      "lock": 2306,
      "we": 2307,
      "ĠSales": 2308,
      "ĠHol": 2309,
      "ĠPersonal": 2310,
      "Ġcreate": 2311,
      "Ġpage": 2312,
      "amm": 2313,
      "ĠYC": 2314,
      "ĠKeep": 2315,
      "Ġprogram": 2316,
      "arget": 2317,
      "ĠSystems": 2318,
      "ĠNetflix": 2319,
      "ĠAustral": 2320,
      "bed": 2321,
      "hell": 2322,
      "Ġdigital": 2323,
      "amb": 2324,
      "Ġnon": 2325,
      "Ġstory": 2326,
      "ified": 2327,
      "ĠWebsite": 2328,
      "Ġ2018": 2329,
      "ritten": 2330,
      "enn": 2331,
      "ĠCity": 2332,
      "erse": 2333,
      "Ġgrow": 2334,
      "2019": 2335,
      "Ġuser": 2336,
      "Ġadd": 2337,
      "eps": 2338,
      "ĠDead": 2339,
      "attle": 2340,
      "Ġmodel": 2341,
      "ĠCrypto": 2342,
      "te": 2343,
      "ĠHot": 2344,
      "Ġair": 2345,
      "Ġco": 2346,
      "ival": 2347,
      "ĠInnov": 2348,
      "une": 2349,
      "ĠChange": 2350,
      "Ġbefore": 2351,
      "ĠClojure": 2352,
      "amsung": 2353,
      "fect": 2354,
      "ination": 2355,
      "ĠPage": 2356,
      "ĠBoot": 2357,
      "Ġthem": 2358,
      "urs": 2359,
      "ĠWhich": 2360,
      "2013": 2361,
      "Ġinterview": 2362,
      "Book": 2363,
      "nd": 2364,
      "ĠSamsung": 2365,
      "ĠType": 2366,
      "ĠRight": 2367,
      "Ġannoun": 2368,
      "ynam": 2369,
      "right": 2370,
      "ĠAccess": 2371,
      "Ġsay": 2372,
      "Ġservices": 2373,
      "Ġdeal": 2374,
      "ĠEffect": 2375,
      "ests": 2376,
      "oph": 2377,
      "Ġlet": 2378,
      "ĠResp": 2379,
      "Ø§ÙĦ": 2380,
      "itecture": 2381,
      "Ġmusic": 2382,
      "eral": 2383,
      "esc": 2384,
      "Ġbook": 2385,
      "uses": 2386,
      "iple": 2387,
      "ĠThere": 2388,
      "ĠPract": 2389,
      "ĠIntelligence": 2390,
      "Ġtesting": 2391,
      "bers": 2392,
      "Ġshow": 2393,
      "Ġ2016": 2394,
      "ĠHackers": 2395,
      "Ġcontrol": 2396,
      "ĠGroup": 2397,
      "Ġtools": 2398,
      "ĠRelease": 2399,
      "Cl": 2400,
      "DE": 2401,
      "pro": 2402,
      "Ġcy": 2403,
      "ĠRad": 2404,
      "ĠRich": 2405,
      "Ġlight": 2406,
      "Ġeconom": 2407,
      "MS": 2408,
      "Qu": 2409,
      "ault": 2410,
      "ĠCare": 2411,
      "Ġwar": 2412,
      "omb": 2413,
      "irms": 2414,
      "Ġthings": 2415,
      "2016": 2416,
      "Ġtrack": 2417,
      "ĠAcqu": 2418,
      "aug": 2419,
      "oes": 2420,
      "ĠMot": 2421,
      "ĠMade": 2422,
      "ĠWould": 2423,
      "ĠDatabase": 2424,
      "Ġcap": 2425,
      "ĠBi": 2426,
      "Ġpack": 2427,
      "ounts": 2428,
      "ancial": 2429,
      "Ġcontent": 2430,
      "ournal": 2431,
      "Ġtwo": 2432,
      "ĠUpdate": 2433,
      "atest": 2434,
      "ĠTod": 2435,
      "ĠCost": 2436,
      "ĠColl": 2437,
      "ĠHar": 2438,
      "rew": 2439,
      "icle": 2440,
      "ĠWall": 2441,
      "acle": 2442,
      "etition": 2443,
      "aker": 2444,
      "aint": 2445,
      "ĠCanad": 2446,
      "ĠEmail": 2447,
      "ER": 2448,
      "sues": 2449,
      "org": 2450,
      "udio": 2451,
      "order": 2452,
      "Ġperformance": 2453,
      "ĠSaaS": 2454,
      "Ġcent": 2455,
      "ĠFail": 2456,
      "ĠGra": 2457,
      "Ġmaking": 2458,
      "Ġmachine": 2459,
      "Ġhistory": 2460,
      "Ġant": 2461,
      "ĠHacking": 2462,
      "Ġresp": 2463,
      "Ġgoing": 2464,
      "ĠRussian": 2465,
      "Ġindustry": 2466,
      "SP": 2467,
      "esp": 2468,
      "eng": 2469,
      "alth": 2470,
      "icy": 2471,
      "Ġdel": 2472,
      "eler": 2473,
      "ĠVer": 2474,
      "avor": 2475,
      "prise": 2476,
      "ĠWithout": 2477,
      "ĠAgainst": 2478,
      "Ġsmall": 2479,
      "ĠCreating": 2480,
      "Ch": 2481,
      "fact": 2482,
      "min": 2483,
      "ĠServices": 2484,
      "Ġtoo": 2485,
      "isp": 2486,
      "ĠFull": 2487,
      "ĠRasp": 2488,
      "ĠEp": 2489,
      "oost": 2490,
      "ĠStill": 2491,
      "Ġreally": 2492,
      "aves": 2493,
      "ĠConnect": 2494,
      "ually": 2495,
      "ledge": 2496,
      "iction": 2497,
      "Ġz": 2498,
      "erious": 2499,
      "ĠTim": 2500,
      "ĠTur": 2501,
      "lege": 2502,
      "ĠMap": 2503,
      "ĠIntern": 2504,
      "ango": 2505,
      "ctional": 2506,
      "veill": 2507,
      "Ġsuccess": 2508,
      "Ġ2021": 2509,
      "Ġacqu": 2510,
      "Ġmanagement": 2511,
      "ĠApplication": 2512,
      "ĠSumm": 2513,
      "ench": 2514,
      "Ġbank": 2515,
      "Ġdatabase": 2516,
      "odcast": 2517,
      "istic": 2518,
      "ĠThrough": 2519,
      "ocket": 2520,
      "ĠCompanies": 2521,
      "eedback": 2522,
      "ĠAPIs": 2523,
      "Ġglobal": 2524,
      "veillance": 2525,
      "ailed": 2526,
      "yond": 2527,
      "Ġ+": 2528,
      "ared": 2529,
      "ĠMars": 2530,
      "road": 2531,
      "ĠDep": 2532,
      "ĠChr": 2533,
      "Ġ14": 2534,
      "ection": 2535,
      "ensor": 2536,
      "Ġ2019": 2537,
      "Ġclass": 2538,
      "ethod": 2539,
      "ĠRemote": 2540,
      "ĠPhotos": 2541,
      "ĠBlockchain": 2542,
      "LI": 2543,
      "bn": 2544,
      "ma": 2545,
      "ring": 2546,
      "ving": 2547,
      "ÙĬ": 2548,
      "ĠSite": 2549,
      "ĠSyn": 2550,
      "ene": 2551,
      "ĠPy": 2552,
      "ĠMillion": 2553,
      "Ġinternet": 2554,
      "ĠEasy": 2555,
      "Ġmet": 2556,
      "ĠWhite": 2557,
      "Ġgames": 2558,
      "AN": 2559,
      "ĠTell": 2560,
      "ĠTyp": 2561,
      "alling": 2562,
      "Ġshort": 2563,
      "ommend": 2564,
      "ront": 2565,
      "redit": 2566,
      "ĠSwift": 2567,
      "ĠRaspberry": 2568,
      "NET": 2569,
      "ead": 2570,
      "ana": 2571,
      "Ġcount": 2572,
      "ĠBy": 2573,
      "Ġbad": 2574,
      "utes": 2575,
      "ĠExp": 2576,
      "ugs": 2577,
      "ĠMicro": 2578,
      "ĠIndustry": 2579,
      "ĠContent": 2580,
      "ognition": 2581,
      "amera": 2582,
      "ĠUnderstanding": 2583,
      "ĠUbuntu": 2584,
      "BM": 2585,
      "cle": 2586,
      "oon": 2587,
      "ittle": 2588,
      "Ġcal": 2589,
      "Ġwants": 2590,
      "ĠGold": 2591,
      "ĠGovernment": 2592,
      "Ġmic": 2593,
      "ental": 2594,
      "ĠNeural": 2595,
      "unk": 2596,
      "Ġgot": 2597,
      "ĠBehind": 2598,
      "ĠFranc": 2599,
      "ryption": 2600,
      "ĠPhys": 2601,
      "ĠReddit": 2602,
      "ography": 2603,
      "Ġbecome": 2604,
      "CC": 2605,
      "Fi": 2606,
      "Press": 2607,
      "ĠSou": 2608,
      "ĠMind": 2609,
      "ildr": 2610,
      "ĠLibrary": 2611,
      "utting": 2612,
      "ĠUl": 2613,
      "emb": 2614,
      "ĠRequ": 2615,
      "anguages": 2616,
      "ampa": 2617,
      "12": 2618,
      "On": 2619,
      "key": 2620,
      "onym": 2621,
      "ares": 2622,
      "Ġbreak": 2623,
      "Ġpersonal": 2624,
      "ĠEar": 2625,
      "ĠView": 2626,
      "Ġvacc": 2627,
      "ocks": 2628,
      "Ġleg": 2629,
      "ĠAtt": 2630,
      "ĠAnalytics": 2631,
      "Ġavailable": 2632,
      "RL": 2633,
      "TC": 2634,
      "eech": 2635,
      "ha": 2636,
      "ĠToo": 2637,
      "alware": 2638,
      "lease": 2639,
      "Ġfil": 2640,
      "ĠMaps": 2641,
      "ĠWomen": 2642,
      "Ġwin": 2643,
      "ĠFix": 2644,
      "ĠGmail": 2645,
      "Ġgets": 2646,
      "Ġstop": 2647,
      "Ġkeep": 2648,
      "Ġhealth": 2649,
      "augh": 2650,
      "ampaign": 2651,
      "Sp": 2652,
      "aff": 2653,
      "ein": 2654,
      "most": 2655,
      "not": 2656,
      "sy": 2657,
      "ves": 2658,
      "ĠSat": 2659,
      "ĠAst": 2660,
      "ouble": 2661,
      "Ġfull": 2662,
      "ĠMIT": 2663,
      "ĠBooks": 2664,
      "Ġmac": 2665,
      "asons": 2666,
      "ĠNever": 2667,
      "ĠShare": 2668,
      "aily": 2669,
      "ĠWorking": 2670,
      "anced": 2671,
      "cent": 2672,
      "eet": 2673,
      "wes": 2674,
      "ened": 2675,
      "ĠCod": 2676,
      "ĠMc": 2677,
      "ĠDeal": 2678,
      "ĠDirect": 2679,
      "Ġcour": 2680,
      "eli": 2681,
      "unch": 2682,
      "play": 2683,
      "ained": 2684,
      "astic": 2685,
      "Ġ2011": 2686,
      "Ġrelease": 2687,
      "clud": 2688,
      "ĠInstagram": 2689,
      "ĠAngular": 2690,
      "ildren": 2691,
      "AI": 2692,
      "ED": 2693,
      "iant": 2694,
      "jango": 2695,
      "son": 2696,
      "ĠØ§ÙĦ": 2697,
      "ĠSS": 2698,
      "ĠHer": 2699,
      "Ġwrong": 2700,
      "ĠLib": 2701,
      "Ġhost": 2702,
      "umans": 2703,
      "oughts": 2704,
      "Ġdoesn": 2705,
      "force": 2706,
      "self": 2707,
      "ĠSee": 2708,
      "ĠMass": 2709,
      "ĠDi": 2710,
      "Ġprom": 2711,
      "ecut": 2712,
      "pped": 2713,
      "Ġgovernment": 2714,
      "2011": 2715,
      "ials": 2716,
      "ounder": 2717,
      "aching": 2718,
      "Ġdead": 2719,
      "urrent": 2720,
      "Ġjobs": 2721,
      "ĠCapital": 2722,
      "ĠLooking": 2723,
      "vironment": 2724,
      "da": 2725,
      "yz": 2726,
      "ĠAge": 2727,
      "Ġcare": 2728,
      "andemic": 2729,
      "raz": 2730,
      "Ġstate": 2731,
      "Ġversion": 2732,
      "aptop": 2733,
      "rying": 2734,
      "itoring": 2735,
      "21": 2736,
      "Ø±": 2737,
      "ĠÂ": 2738,
      "ĠSave": 2739,
      "ĠSnow": 2740,
      "ĠSeries": 2741,
      "Ġcoll": 2742,
      "change": 2743,
      "akers": 2744,
      "ocol": 2745,
      "ĠScr": 2746,
      "ĠZero": 2747,
      "Ġaccount": 2748,
      "ĠDownload": 2749,
      "ĠSlack": 2750,
      "ĠApplications": 2751,
      "ĠLinked": 2752,
      "ĠWordPress": 2753,
      "Ġguide": 2754,
      "Con": 2755,
      "TO": 2756,
      "cel": 2757,
      "den": 2758,
      "words": 2759,
      "outs": 2760,
      "Ġfix": 2761,
      "Ġfaster": 2762,
      "Ġsim": 2763,
      "ĠLast": 2764,
      "Ġmany": 2765,
      "used": 2766,
      "Ġhere": 2767,
      "ĠShort": 2768,
      "osing": 2769,
      "Ġ13": 2770,
      "action": 2771,
      "ĠArm": 2772,
      "Ġpres": 2773,
      "ondon": 2774,
      "ĠCombin": 2775,
      "Ġsystems": 2776,
      "ĠNetworks": 2777,
      "dress": 2778,
      "ĠToday": 2779,
      "put": 2780,
      "Ġel": 2781,
      "ergy": 2782,
      "ores": 2783,
      "ĠSqu": 2784,
      "alf": 2785,
      "ĠWi": 2786,
      "ilit": 2787,
      "ocation": 2788,
      "ustr": 2789,
      "Ġspec": 2790,
      "ĠGoing": 2791,
      "argest": 2792,
      "ĠApache": 2793,
      "DF": 2794,
      "Fl": 2795,
      "PU": 2796,
      "eel": 2797,
      "oe": 2798,
      "ĠLisp": 2799,
      "ĠTheory": 2800,
      "lying": 2801,
      "ground": 2802,
      "Ġ2013": 2803,
      "Ġclient": 2804,
      "ĠReality": 2805,
      "ĠDeath": 2806,
      "Ġrobot": 2807,
      "100": 2808,
      "App": 2809,
      "eer": 2810,
      "list": 2811,
      "Ġtax": 2812,
      "ĠDark": 2813,
      "oms": 2814,
      "asing": 2815,
      "ĠUk": 2816,
      "adem": 2817,
      "ĠStand": 2818,
      "ĠStorage": 2819,
      "2020": 2820,
      "umer": 2821,
      "Ġatt": 2822,
      "Ġ2015": 2823,
      "ashing": 2824,
      "ĠFront": 2825,
      "implement": 2826,
      "ĠMoz": 2827,
      "ique": 2828,
      "Ġcheck": 2829,
      "ĠJSON": 2830,
      "ĠSpotify": 2831,
      "GPT": 2832,
      "ĠAfric": 2833,
      "Dr": 2834,
      "Ġfile": 2835,
      "ĠMer": 2836,
      "Ġtoday": 2837,
      "Ġstand": 2838,
      "ĠConc": 2839,
      "ĠSpec": 2840,
      "ĠBeing": 2841,
      "Ġ25": 2842,
      "Ġplans": 2843,
      "ĠQuick": 2844,
      "ĠGPU": 2845,
      "ĠMemory": 2846,
      "Ġelectric": 2847,
      "roken": 2848,
      "uation": 2849,
      "ĠHis": 2850,
      "ĠDetect": 2851,
      "ĠLondon": 2852,
      "eline": 2853,
      "ĠNorth": 2854,
      "ĠInv": 2855,
      "ags": 2856,
      "Ġred": 2857,
      "illions": 2858,
      "ubble": 2859,
      "Ġrest": 2860,
      "aste": 2861,
      "ĠEnter": 2862,
      "uggest": 2863,
      "Ġkill": 2864,
      "ĠIntegr": 2865,
      "aunched": 2866,
      "ĠEmploy": 2867,
      "Ġexperience": 2868,
      "Ġidea": 2869,
      "rastructure": 2870,
      "ĠUlt": 2871,
      "UI": 2872,
      "li": 2873,
      "ĠTax": 2874,
      "ĠIBM": 2875,
      "Ġcase": 2876,
      "enture": 2877,
      "ayer": 2878,
      "ĠKn": 2879,
      "Ġbehind": 2880,
      "ĠExt": 2881,
      "ffects": 2882,
      "duc": 2883,
      "ĠOnly": 2884,
      "terns": 2885,
      "ĠPrice": 2886,
      "rowd": 2887,
      "Ġauth": 2888,
      "Ġvisual": 2889,
      "ĠEntrepreneurs": 2890,
      "Ġ:": 2891,
      "ĠTutorial": 2892,
      "Ġfre": 2893,
      "ĠBar": 2894,
      "ĠRest": 2895,
      "ĠEqu": 2896,
      "Ġgraph": 2897,
      "ĠVR": 2898,
      "aked": 2899,
      "Ġshows": 2900,
      "Ġ40": 2901,
      "ĠReally": 2902,
      "ĠDeploy": 2903,
      "Ġimport": 2904,
      "gorithms": 2905,
      "ĠRunning": 2906,
      "autif": 2907,
      "Sh": 2908,
      "Ã©": 2909,
      "Ġimplement": 2910,
      "ĠCount": 2911,
      "ĠMakes": 2912,
      "ctions": 2913,
      "ĠKind": 2914,
      "ĠEverything": 2915,
      "ĠResearchers": 2916,
      "ĠGrowth": 2917,
      "ĠFrancisco": 2918,
      "30": 2919,
      "ye": 2920,
      "Ġtrain": 2921,
      "ĠTable": 2922,
      "ĠWal": 2923,
      "etic": 2924,
      "ĠOther": 2925,
      "oses": 2926,
      "Ġprogramm": 2927,
      "ĠEnergy": 2928,
      "ĠSpeed": 2929,
      "Ġchat": 2930,
      "ĠQual": 2931,
      "Ġarr": 2932,
      "Ġimage": 2933,
      "Ġremote": 2934,
      "Ġ2022": 2935,
      "fficient": 2936,
      "Ġapplication": 2937,
      "ĠSouth": 2938,
      "wesome": 2939,
      "autiful": 2940,
      "DA": 2941,
      "like": 2942,
      "ino": 2943,
      "ora": 2944,
      "orse": 2945,
      "ening": 2946,
      "ĠCI": 2947,
      "ĠPack": 2948,
      "ĠMen": 2949,
      "ĠMath": 2950,
      "ĠDet": 2951,
      "andom": 2952,
      "Ġbi": 2953,
      "ilities": 2954,
      "ĠLove": 2955,
      "ention": 2956,
      "ĠNF": 2957,
      "Ġgen": 2958,
      "ĠImport": 2959,
      "energy": 2960,
      "Ġblack": 2961,
      "Ġarch": 2962,
      "ĠImplement": 2963,
      "ports": 2964,
      "ĠCoronavirus": 2965,
      "Ġcoronavirus": 2966,
      "ĠChallenge": 2967,
      "Time": 2968,
      "hav": 2969,
      "kell": 2970,
      "uel": 2971,
      "xy": 2972,
      "onse": 2973,
      "ĠHom": 2974,
      "ĠDjango": 2975,
      "Ġsyn": 2976,
      "ĠRoad": 2977,
      "Ġdetect": 2978,
      "Ġdomain": 2979,
      "ĠThem": 2980,
      "empl": 2981,
      "ocurrency": 2982,
      "ugin": 2983,
      "ĠContin": 2984,
      "Ġrecord": 2985,
      "ĠLearned": 2986,
      "Ġraises": 2987,
      "gen": 2988,
      "uk": 2989,
      "ĠSEO": 2990,
      "ĠTor": 2991,
      "ĠTimes": 2992,
      "ĠWrite": 2993,
      "acs": 2994,
      "ĠFil": 2995,
      "ĠFive": 2996,
      "ĠVP": 2997,
      "ocr": 2998,
      "ume": 2999,
      "ĠThree": 3000,
      "2012": 3001,
      "ĠClimate": 3002,
      "ĠBefore": 3003,
      "flu": 3004,
      "ĠRecord": 3005,
      "ĠAmericans": 3006,
      "ĠCourt": 3007,
      "'ve": 3008,
      "ford": 3009,
      "oT": 3010,
      "ĠAT": 3011,
      "Ġfail": 3012,
      "ĠWays": 3013,
      "ĠIr": 3014,
      "Ġside": 3015,
      "Ġcur": 3016,
      "ĠBay": 3017,
      "Ġdays": 3018,
      "ĠLow": 3019,
      "ides": 3020,
      "Ġthreat": 3021,
      "Ġvideos": 3022,
      "ĠChar": 3023,
      "apers": 3024,
      "Ġwhere": 3025,
      "ĠPrivate": 3026,
      "ances": 3027,
      "ĠComing": 3028,
      "ĠStudio": 3029,
      "Ġimages": 3030,
      "ĠPatent": 3031,
      "ney": 3032,
      "ĠØ": 3033,
      "acts": 3034,
      "Ġoffer": 3035,
      "igr": 3036,
      "ested": 3037,
      "ĠJul": 3038,
      "ĠCommunity": 3039,
      "ucker": 3040,
      "ĠArtificial": 3041,
      "ĠElectric": 3042,
      "Query": 3043,
      "ĠMozilla": 3044,
      "EC": 3045,
      "IN": 3046,
      "bon": 3047,
      "ored": 3048,
      "atically": 3049,
      "ĠSup": 3050,
      "ĠCore": 3051,
      "ster": 3052,
      "ica": 3053,
      "icing": 3054,
      "Ġsee": 3055,
      "Ġschool": 3056,
      "Ġoper": 3057,
      "Ġwritten": 3058,
      "ĠFight": 3059,
      "Ġban": 3060,
      "oman": 3061,
      "ĠInformation": 3062,
      "ĠStreet": 3063,
      "Ġrep": 3064,
      "ured": 3065,
      "ĠImage": 3066,
      "ĠFri": 3067,
      "Ġsupp": 3068,
      "ĠPhil": 3069,
      "ether": 3070,
      "ĠHaskell": 3071,
      "Ġaround": 3072,
      "ĠIPO": 3073,
      "opyright": 3074,
      "ĠAMD": 3075,
      "80": 3076,
      "Sc": 3077,
      "host": 3078,
      "tt": 3079,
      "ved": 3080,
      "erce": 3081,
      "ĠML": 3082,
      "Ġsites": 3083,
      "Ġwon": 3084,
      "Ġdifferent": 3085,
      "ĠNon": 3086,
      "ĠNvid": 3087,
      "idence": 3088,
      "ampl": 3089,
      "ĠTrack": 3090,
      "ĠTrust": 3091,
      "Ġclimate": 3092,
      "ĠCommun": 3093,
      "Ġcommunity": 3094,
      "ĠCheap": 3095,
      "ĠObama": 3096,
      "Ġfinds": 3097,
      "ĠHead": 3098,
      "ĠSolar": 3099,
      "Ġlearned": 3100,
      "ĠTele": 3101,
      "ĠEuropean": 3102,
      "ĠIdeas": 3103,
      "Ġterm": 3104,
      "ĠAz": 3105,
      "iter": 3106,
      "ĠPal": 3107,
      "ĠPers": 3108,
      "ĠDomain": 3109,
      "Ġsuper": 3110,
      "ĠBillion": 3111,
      "ĠBreak": 3112,
      "ĠFiles": 3113,
      "ĠEduc": 3114,
      "Ġmillion": 3115,
      "ĠNative": 3116,
      "ĠNYC": 3117,
      "ades": 3118,
      "irth": 3119,
      "Ġextension": 3120,
      "Ġeasy": 3121,
      "ernel": 3122,
      "ĠCommon": 3123,
      "Ġdeath": 3124,
      "Ġmeet": 3125,
      "iddle": 3126,
      "Ġincre": 3127,
      "ulnerability": 3128,
      "Ġemployees": 3129,
      "ĠNvidia": 3130,
      "Based": 3131,
      "comp": 3132,
      "light": 3133,
      "ters": 3134,
      "ways": 3135,
      "ĠSch": 3136,
      "ĠTerm": 3137,
      "leep": 3138,
      "ĠBeta": 3139,
      "ĠGal": 3140,
      "asc": 3141,
      "otion": 3142,
      "urance": 3143,
      "Ġne": 3144,
      "estion": 3145,
      "obe": 3146,
      "ibility": 3147,
      "achines": 3148,
      "ervers": 3149,
      "ĠSecond": 3150,
      "anks": 3151,
      "Ġsecret": 3152,
      "ĠObject": 3153,
      "Ġanyone": 3154,
      "AP": 3155,
      "BC": 3156,
      "hing": 3157,
      "iation": 3158,
      "head": 3159,
      "rets": 3160,
      "ĠWrong": 3161,
      "ĠBrit": 3162,
      "Ġwatch": 3163,
      "acter": 3164,
      "Ġbooks": 3165,
      "ety": 3166,
      "ĠNav": 3167,
      "amily": 3168,
      "otential": 3169,
      "Ġline": 3170,
      "esting": 3171,
      "ĠJe": 3172,
      "ĠProblems": 3173,
      "ĠAuto": 3174,
      "ĠOracle": 3175,
      "ĠMonth": 3176,
      "Ġentrepreneur": 3177,
      "ĠAnnouncing": 3178,
      "idden": 3179,
      "Ġcrypto": 3180,
      "ries": 3181,
      "Ġenergy": 3182,
      "ĠTre": 3183,
      "ĠMiss": 3184,
      "Ġsingle": 3185,
      "Ġcall": 3186,
      "Ġwrite": 3187,
      "ĠFour": 3188,
      "âĢĬ": 3189,
      "ĠEst": 3190,
      "Ġname": 3191,
      "Ġhad": 3192,
      "ipedia": 3193,
      "Ġanother": 3194,
      "Ġext": 3195,
      "Ġ2014": 3196,
      "ĠWorkers": 3197,
      "ĠOrig": 3198,
      "ĠColor": 3199,
      "ready": 3200,
      "ĠEvolution": 3201,
      "Ġfounder": 3202,
      "anned": 3203,
      "ĠChatGPT": 3204,
      "ĠAnti": 3205,
      "Ġanalysis": 3206,
      "ding": 3207,
      "erg": 3208,
      "ĠSale": 3209,
      "ĠHost": 3210,
      "Ġfri": 3211,
      "ĠBoard": 3212,
      "ĠLim": 3213,
      "agon": 3214,
      "ulator": 3215,
      "raine": 3216,
      "ĠConvers": 3217,
      "Ġshare": 3218,
      "ĠEngineer": 3219,
      "afe": 3220,
      "ribution": 3221,
      "EST": 3222,
      "ĠÙħ": 3223,
      "ĠChrist": 3224,
      "IP": 3225,
      "aur": 3226,
      "ying": 3227,
      "Ġfight": 3228,
      "ĠPush": 3229,
      "Ġsell": 3230,
      "ĠFB": 3231,
      "ĠFile": 3232,
      "ĠFood": 3233,
      "ĠGot": 3234,
      "Ġduring": 3235,
      "Ġdirect": 3236,
      "ĠURL": 3237,
      "Ġstat": 3238,
      "Ġrad": 3239,
      "Ġrules": 3240,
      "pression": 3241,
      "Ġworks": 3242,
      "Ġmodern": 3243,
      "ĠImprov": 3244,
      "ourney": 3245,
      "ĠAnnounces": 3246,
      "Ġrunning": 3247,
      "Ops": 3248,
      "Th": 3249,
      "VM": 3250,
      "bl": 3251,
      "ius": 3252,
      "ka": 3253,
      "inary": 3254,
      "ĠCS": 3255,
      "ĠCard": 3256,
      "ĠMail": 3257,
      "Ġlast": 3258,
      "Ġnever": 3259,
      "Ġstore": 3260,
      "ĠKick": 3261,
      "echan": 3262,
      "Ġconnect": 3263,
      "ĠClient": 3264,
      "Ġwhich": 3265,
      "ĠArr": 3266,
      "overed": 3267,
      "ĠImages": 3268,
      "Ġwebsites": 3269,
      "ishing": 3270,
      "ĠZucker": 3271,
      "ollar": 3272,
      "ĠStrategy": 3273,
      "ĠAnyone": 3274,
      "ĠIdea": 3275,
      "avorite": 3276,
      "ilitary": 3277,
      "86": 3278,
      "ID": 3279,
      "free": 3280,
      "opping": 3281,
      "ince": 3282,
      "ĠSen": 3283,
      "ĠCook": 3284,
      "ĠWire": 3285,
      "Ġscr": 3286,
      "Ġcard": 3287,
      "ĠBuilt": 3288,
      "ĠEss": 3289,
      "ably": 3290,
      "ateg": 3291,
      "Ġ17": 3292,
      "ĠAlgorithm": 3293,
      "aches": 3294,
      "Ġspeed": 3295,
      "Ġpract": 3296,
      "Ġagain": 3297,
      "ĠSpaceX": 3298,
      "ĠIncre": 3299,
      "par": 3300,
      "so": 3301,
      "sue": 3302,
      "Ġtyp": 3303,
      "ĠTrain": 3304,
      "ĠCoding": 3305,
      "ĠIoT": 3306,
      "ĠFaster": 3307,
      "ĠRise": 3308,
      "Ġpopular": 3309,
      "ĠGets": 3310,
      "ivery": 3311,
      "irl": 3312,
      "ĠVol": 3313,
      "Ġisn": 3314,
      "ĠAnother": 3315,
      "Ġview": 3316,
      "ĠManager": 3317,
      "Ġreveal": 3318,
      "ĠFounder": 3319,
      "ĠFoundation": 3320,
      "ĠInnovation": 3321,
      "embly": 3322,
      "ball": 3323,
      "fund": 3324,
      "oDB": 3325,
      "rics": 3326,
      "Ġearly": 3327,
      "Ġtakes": 3328,
      "alt": 3329,
      "Ġfr": 3330,
      "ĠPredict": 3331,
      "ĠDesktop": 3332,
      "Ġboard": 3333,
      "ometh": 3334,
      "Ġmiss": 3335,
      "asure": 3336,
      "Ġkn": 3337,
      "Ġads": 3338,
      "ĠFlash": 3339,
      "ĠOrgan": 3340,
      "ĠOffice": 3341,
      "Ġmanager": 3342,
      "ĠEconomy": 3343,
      "ĠEarly": 3344,
      "ĠAzure": 3345,
      "ga": 3346,
      "wh": 3347,
      "atural": 3348,
      "ĠCall": 3349,
      "ĠHad": 3350,
      "reme": 3351,
      "ĠPa": 3352,
      "ĠPaper": 3353,
      "Ġcrit": 3354,
      "ĠRules": 3355,
      "ĠGreen": 3356,
      "ĠLost": 3357,
      "ĠEC": 3358,
      "ĠVim": 3359,
      "ĠJoin": 3360,
      "istics": 3361,
      "oung": 3362,
      "Ġeas": 3363,
      "Ġalternative": 3364,
      "ĠSupp": 3365,
      "Ġsecure": 3366,
      "Ġgetting": 3367,
      "ĠGeneration": 3368,
      "Ġcoming": 3369,
      "ĠIdent": 3370,
      "ĠArchitecture": 3371,
      "ĠMathem": 3372,
      "ĠAustralia": 3373,
      "bnb": 3374,
      "onymous": 3375,
      "ĠZuckerberg": 3376,
      "IM": 3377,
      "OM": 3378,
      "Wh": 3379,
      "aims": 3380,
      "lines": 3381,
      "the": 3382,
      "year": 3383,
      "Ġtable": 3384,
      "ĠSay": 3385,
      "ĠCPU": 3386,
      "Ġsave": 3387,
      "Ġbre": 3388,
      "illed": 3389,
      "ĠEvent": 3390,
      "ader": 3391,
      "ĠStock": 3392,
      "ops": 3393,
      "ĠAnim": 3394,
      "ĠKids": 3395,
      "ereum": 3396,
      "Ġintrodu": 3397,
      "offee": 3398,
      "Ġlooking": 3399,
      "Ġcustomers": 3400,
      "vertising": 3401,
      "DK": 3402,
      "Pro": 3403,
      "kit": 3404,
      "Ġver": 3405,
      "esis": 3406,
      "itors": 3407,
      "Ġsales": 3408,
      "Ġwere": 3409,
      "ished": 3410,
      "ĠFact": 3411,
      "iling": 3412,
      "Ġdeep": 3413,
      "Ġmight": 3414,
      "ĠStan": 3415,
      "ĠRepl": 3416,
      "ĠKore": 3417,
      "ikes": 3418,
      "Ġprice": 3419,
      "ological": 3420,
      "isease": 3421,
      "ĠWorks": 3422,
      "ĠAgain": 3423,
      "ĠReading": 3424,
      "ĠScala": 3425,
      "ĠWikipedia": 3426,
      "ĠDropbox": 3427,
      "omething": 3428,
      "500": 3429,
      "AS": 3430,
      "IC": 3431,
      "base": 3432,
      "che": 3433,
      "iol": 3434,
      "power": 3435,
      "orst": 3436,
      "ĠSand": 3437,
      "ĠSym": 3438,
      "Ġface": 3439,
      "Ġaway": 3440,
      "ĠDynam": 3441,
      "ĠFace": 3442,
      "Ġinv": 3443,
      "Ġdi": 3444,
      "ecurity": 3445,
      "oose": 3446,
      "Ġlab": 3447,
      "izer": 3448,
      "izon": 3449,
      "ansom": 3450,
      "ĠPlans": 3451,
      "ĠAds": 3452,
      "ĠIndian": 3453,
      "Ġquantum": 3454,
      "Ġsecond": 3455,
      "ĠAirbnb": 3456,
      "Ġcustomer": 3457,
      "ĠHyper": 3458,
      "ĠPrinc": 3459,
      "ĠUkraine": 3460,
      "Pl": 3461,
      "Source": 3462,
      "ait": 3463,
      "comm": 3464,
      "uous": 3465,
      "heet": 3466,
      "ĠCrit": 3467,
      "ĠHiring": 3468,
      "ĠMyst": 3469,
      "ĠBased": 3470,
      "Ġwater": 3471,
      "Ġbill": 3472,
      "ĠGive": 3473,
      "ilot": 3474,
      "Ġdocument": 3475,
      "Ġmed": 3476,
      "ĠNY": 3477,
      "idge": 3478,
      "utions": 3479,
      "Ġexp": 3480,
      "ĠBegin": 3481,
      "ensors": 3482,
      "ugging": 3483,
      "efits": 3484,
      "ĠQuestions": 3485,
      "axy": 3486,
      "ĠBring": 3487,
      "Ġgoes": 3488,
      "Ġdevices": 3489,
      "Ġideas": 3490,
      "ĠDNA": 3491,
      "ĠmacOS": 3492,
      "amples": 3493,
      "60": 3494,
      "ged": 3495,
      "Ġ=": 3496,
      "ĠSF": 3497,
      "ĠSex": 3498,
      "ĠCool": 3499,
      "alle": 3500,
      "ĠPDF": 3501,
      "ĠMuch": 3502,
      "ĠWon": 3503,
      "ĠWater": 3504,
      "ĠWants": 3505,
      "ĠII": 3506,
      "ĠBur": 3507,
      "Ġinformation": 3508,
      "ĠLine": 3509,
      "Ġmag": 3510,
      "Ġhit": 3511,
      "Ġhours": 3512,
      "ĠRef": 3513,
      "ĠThreat": 3514,
      "Ġproblems": 3515,
      "ĠBeyond": 3516,
      "Ġkids": 3517,
      "inking": 3518,
      "Ġ500": 3519,
      "ĠMany": 3520,
      "epend": 3521,
      "ĠInteractive": 3522,
      "Ġofficial": 3523,
      "ĠExperience": 3524,
      "ĠExperiment": 3525,
      "ĠEthereum": 3526,
      "ĠBootst": 3527,
      "sych": 3528,
      "ij": 3529,
      "mas": 3530,
      "ĠSem": 3531,
      "ĠClean": 3532,
      "ĠMong": 3533,
      "ĠMatt": 3534,
      "ĠIC": 3535,
      "ĠDocument": 3536,
      "ĠBug": 3537,
      "Ġbug": 3538,
      "usp": 3539,
      "otes": 3540,
      "Ġnuclear": 3541,
      "estro": 3542,
      "Ġproduction": 3543,
      "izz": 3544,
      "ĠTracking": 3545,
      "Ġjoin": 3546,
      "ifications": 3547,
      "okia": 3548,
      "ifying": 3549,
      "ĠPolit": 3550,
      "ĠFinding": 3551,
      "ographic": 3552,
      "ĠGPT": 3553,
      "ĠAdvice": 3554,
      "ĠCustomer": 3555,
      "Ġlaws": 3556,
      "ĠFeatures": 3557,
      "ambda": 3558,
      "ĠCanada": 3559,
      "ĠCombinator": 3560,
      "25": 3561,
      "99": 3562,
      "uys": 3563,
      "Ġx": 3564,
      "inter": 3565,
      "ĠAug": 3566,
      "ĠCars": 3567,
      "ĠMaster": 3568,
      "ĠMajor": 3569,
      "ĠDream": 3570,
      "ĠBox": 3571,
      "Ġlove": 3572,
      "Ġask": 3573,
      "ĠUnix": 3574,
      "Ġeffect": 3575,
      "Ġplace": 3576,
      "encies": 3577,
      "rones": 3578,
      "ĠModels": 3579,
      "oku": 3580,
      "ample": 3581,
      "Ġcommun": 3582,
      "ĠPolice": 3583,
      "wards": 3584,
      "ĠFunding": 3585,
      "ĠElectron": 3586,
      "Ġapplications": 3587,
      "Ġmonths": 3588,
      "Ġupdate": 3589,
      "aught": 3590,
      "ĠEducation": 3591,
      "GL": 3592,
      "ining": 3593,
      "ĠSing": 3594,
      "ĠSun": 3595,
      "ĠSide": 3596,
      "ĠPut": 3597,
      "Ġworth": 3598,
      "ĠRound": 3599,
      "Ġbattery": 3600,
      "igation": 3601,
      "ĠUX": 3602,
      "oles": 3603,
      "ourcing": 3604,
      "Ġ21": 3605,
      "Ġ2010": 3606,
      "oints": 3607,
      "Ġprivate": 3608,
      "ĠNotes": 3609,
      "ĠSecure": 3610,
      "Ġhackers": 3611,
      "pective": 3612,
      "Ġacross": 3613,
      "ĠBecome": 3614,
      "ĠBench": 3615,
      "error": 3616,
      "ĠDistributed": 3617,
      "OL": 3618,
      "PM": 3619,
      "bol": 3620,
      "eh": 3621,
      "ĠSony": 3622,
      "Ġfront": 3623,
      "ĠPark": 3624,
      "ĠPublish": 3625,
      "ĠDat": 3626,
      "Ġdesktop": 3627,
      "ĠUr": 3628,
      "ively": 3629,
      "Ġgive": 3630,
      "raud": 3631,
      "thers": 3632,
      "Ġ16": 3633,
      "Ġrisk": 3634,
      "ainer": 3635,
      "antic": 3636,
      "phones": 3637,
      "ĠAlph": 3638,
      "eful": 3639,
      "ĠMySQL": 3640,
      "vention": 3641,
      "Ġdownload": 3642,
      "ĠImprove": 3643,
      "Ġsoon": 3644,
      "Ġproducts": 3645,
      "ĠFunctional": 3646,
      "Ġinside": 3647,
      "Ġmemory": 3648,
      "ĠGermany": 3649,
      "ipping": 3650,
      "pts": 3651,
      "ror": 3652,
      "script": 3653,
      "yl": 3654,
      "ÙĪ": 3655,
      "Ġident": 3656,
      "Ġtips": 3657,
      "itt": 3658,
      "ĠMyth": 3659,
      "ĠMax": 3660,
      "Ġcars": 3661,
      "ĠBattle": 3662,
      "ĠGol": 3663,
      "Ġmass": 3664,
      "Ġmajor": 3665,
      "ĠNokia": 3666,
      "ived": 3667,
      "Ġref": 3668,
      "Ġstorage": 3669,
      "Ġissues": 3670,
      "osp": 3671,
      "ĠExtension": 3672,
      "udge": 3673,
      "ĠBlue": 3674,
      "ancing": 3675,
      "ĠDrive": 3676,
      "Ġquestions": 3677,
      "2009": 3678,
      "Ġhacked": 3679,
      "ĠGlass": 3680,
      "Ġneeds": 3681,
      "ĠProtect": 3682,
      "ĠServerless": 3683,
      "Ġchanges": 3684,
      "Ġfeature": 3685,
      "cient": 3686,
      "ept": 3687,
      "atory": 3688,
      "arison": 3689,
      "ald": 3690,
      "ĠPir": 3691,
      "ĠMight": 3692,
      "ĠIll": 3693,
      "Ġwomen": 3694,
      "ĠREST": 3695,
      "Ġbas": 3696,
      "Ġbeta": 3697,
      "Ġdet": 3698,
      "entral": 3699,
      "Ġlost": 3700,
      "irc": 3701,
      "ĠVersion": 3702,
      "osh": 3703,
      "ĠWhats": 3704,
      "aining": 3705,
      "izes": 3706,
      "ĠAlternative": 3707,
      "Ġorig": 3708,
      "ĠRevolution": 3709,
      "issions": 3710,
      "Ġreleases": 3711,
      "Ġtests": 3712,
      "ĠPostgre": 3713,
      "Ġengineering": 3714,
      "iety": 3715,
      "Ġslow": 3716,
      "ĠDNS": 3717,
      "ĠSnap": 3718,
      "Ġfeatures": 3719,
      "DC": 3720,
      "US": 3721,
      "come": 3722,
      "oit": 3723,
      "ĠSound": 3724,
      "ĠTouch": 3725,
      "ĠCross": 3726,
      "ĠBetween": 3727,
      "Ġways": 3728,
      "Ġinnov": 3729,
      "Ġpublish": 3730,
      "omes": 3731,
      "omet": 3732,
      "eless": 3733,
      "Ġlocal": 3734,
      "opt": 3735,
      "istor": 3736,
      "ĠProgress": 3737,
      "ĠCongress": 3738,
      "duce": 3739,
      "Ġshut": 3740,
      "veils": 3741,
      "ĠResults": 3742,
      "Ġalgorithm": 3743,
      "Ġeven": 3744,
      "ĠFinancial": 3745,
      "ĠTraffic": 3746,
      "Ġexperiment": 3747,
      "Ġsurv": 3748,
      "Ġpatent": 3749,
      "swer": 3750,
      "Ġscientists": 3751,
      "weight": 3752,
      "Ġannounces": 3753,
      "ĠPostgreSQL": 3754,
      "PC": 3755,
      "ele": 3756,
      "erry": 3757,
      "atives": 3758,
      "itions": 3759,
      "ĠMor": 3760,
      "ĠDes": 3761,
      "Ġcalls": 3762,
      "Ġwind": 3763,
      "Ġpossible": 3764,
      "ĠLetter": 3765,
      "ĠLocal": 3766,
      "ently": 3767,
      "ĠNational": 3768,
      "urch": 3769,
      "Ġnumbers": 3770,
      "Ġhy": 3771,
      "cean": 3772,
      "aks": 3773,
      "through": 3774,
      "ĠProduction": 3775,
      "Ġ18": 3776,
      "2010": 3777,
      "Ġuses": 3778,
      "crib": 3779,
      "ĠMacBook": 3780,
      "ĠVision": 3781,
      "reads": 3782,
      "posed": 3783,
      "Ġremov": 3784,
      "havior": 3785,
      "ĠBenchmark": 3786,
      "15": 3787,
      "En": 3788,
      "pir": 3789,
      "itable": 3790,
      "ĠTow": 3791,
      "Ġfake": 3792,
      "ĠPan": 3793,
      "ĠPix": 3794,
      "ĠMeta": 3795,
      "Ġsat": 3796,
      "ĠBab": 3797,
      "Ġintern": 3798,
      "Ġport": 3799,
      "etch": 3800,
      "oming": 3801,
      "Ġdrop": 3802,
      "ĠNov": 3803,
      "ĠNuclear": 3804,
      "oos": 3805,
      "imer": 3806,
      "apt": 3807,
      "ĠShows": 3808,
      "uster": 3809,
      "ĠWebsites": 3810,
      "apping": 3811,
      "iversity": 3812,
      "ĠEdition": 3813,
      "ĠNeeds": 3814,
      "pected": 3815,
      "Ġstarted": 3816,
      "ĠAcceler": 3817,
      "Ġnetworks": 3818,
      "ĠMovie": 3819,
      "Ġavoid": 3820,
      "ĠHardware": 3821,
      "ĠEnglish": 3822,
      "Ġvaccine": 3823,
      "ĠSnowden": 3824,
      "ĠLinkedIn": 3825,
      "RA": 3826,
      "pre": 3827,
      "uge": 3828,
      "ãĥ": 3829,
      "ano": 3830,
      "itting": 3831,
      "ĠCredit": 3832,
      "stein": 3833,
      "Ġwriting": 3834,
      "ĠFar": 3835,
      "ĠFall": 3836,
      "Ġdes": 3837,
      "Ġmind": 3838,
      "asks": 3839,
      "ĠNob": 3840,
      "igration": 3841,
      "otype": 3842,
      "pper": 3843,
      "Ġlow": 3844,
      "ĠStream": 3845,
      "Ġhiring": 3846,
      "iral": 3847,
      "ems": 3848,
      "acks": 3849,
      "ĠVM": 3850,
      "ĠAnn": 3851,
      "osoph": 3852,
      "Ġthing": 3853,
      "ĠApproach": 3854,
      "ĠConst": 3855,
      "ikely": 3856,
      "Ġcharg": 3857,
      "Ġintegr": 3858,
      "ĠSwitch": 3859,
      "Ġimprov": 3860,
      "ĠLaws": 3861,
      "Ġdevice": 3862,
      "Ġsurveillance": 3863,
      "ĠUniversity": 3864,
      "angerous": 3865,
      "17": 3866,
      "22": 3867,
      "Up": 3868,
      "iable": 3869,
      "mp": 3870,
      "war": 3871,
      "ÙĦ": 3872,
      "Ġet": 3873,
      "ĠAlex": 3874,
      "ĠTex": 3875,
      "ĠHell": 3876,
      "ĠPopular": 3877,
      "ĠDI": 3878,
      "ĠDav": 3879,
      "Ġsn": 3880,
      "ĠRisk": 3881,
      "ĠLand": 3882,
      "ĠLambda": 3883,
      "ĠEas": 3884,
      "Ġmap": 3885,
      "ĠNumbers": 3886,
      "utral": 3887,
      "oting": 3888,
      "Ġlim": 3889,
      "2021": 3890,
      "odes": 3891,
      "ĠShut": 3892,
      "ups": 3893,
      "ister": 3894,
      "ĠProjects": 3895,
      "ĠReasons": 3896,
      "ĠChrom": 3897,
      "ĠThoughts": 3898,
      "endly": 3899,
      "ĠSpark": 3900,
      "Ġchallen": 3901,
      "Ġtracking": 3902,
      "Ġintelligence": 3903,
      "ync": 3904,
      "ĠEngineers": 3905,
      "ĠEdge": 3906,
      "porate": 3907,
      "ĠAutomated": 3908,
      "Ġmarketing": 3909,
      "ĠMoon": 3910,
      "Ġoptim": 3911,
      "ĠRaises": 3912,
      "ĠKickst": 3913,
      "16": 3914,
      "PR": 3915,
      "ĠSV": 3916,
      "ĠSingle": 3917,
      "ĠARM": 3918,
      "enue": 3919,
      "ĠPoint": 3920,
      "ĠWars": 3921,
      "Ġcoding": 3922,
      "ĠBer": 3923,
      "iding": 3924,
      "iday": 3925,
      "abilities": 3926,
      "Ġrise": 3927,
      "Ġchip": 3928,
      "itional": 3929,
      "ĠPerl": 3930,
      "Ġ60": 3931,
      "ĠOfficial": 3932,
      "Ġcommand": 3933,
      "ĠTechnical": 3934,
      "Ġimm": 3935,
      "Ġphys": 3936,
      "Ġcrisis": 3937,
      "Ġeditor": 3938,
      "Ġtravel": 3939,
      "Ġdistributed": 3940,
      "ĠSurvey": 3941,
      "ĠRadio": 3942,
      "allel": 3943,
      "14": 3944,
      "BSD": 3945,
      "Ex": 3946,
      "aim": 3947,
      "ban": 3948,
      "bot": 3949,
      "cy": 3950,
      "yr": 3951,
      "Ø©": 3952,
      "ĠTakes": 3953,
      "ĠCoun": 3954,
      "ĠCLI": 3955,
      "Ġfood": 3956,
      "ĠGates": 3957,
      "Ġmen": 3958,
      "arts": 3959,
      "Ġrepl": 3960,
      "osystem": 3961,
      "Ġanim": 3962,
      "Ġprov": 3963,
      "Ġchar": 3964,
      "Ġdoing": 3965,
      "erve": 3966,
      "ashboard": 3967,
      "Ġworkers": 3968,
      "Ġcontin": 3969,
      "2007": 3970,
      "aterial": 3971,
      "ĠCollect": 3972,
      "ĠCalcul": 3973,
      "Ġstudents": 3974,
      "ĠCapt": 3975,
      "ĠCourse": 3976,
      "Ġphotos": 3977,
      "bedd": 3978,
      "Ġimportant": 3979,
      "lation": 3980,
      "tech": 3981,
      "ĠSa": 3982,
      "ĠSell": 3983,
      "arch": 3984,
      "ĠCO": 3985,
      "Ġfar": 3986,
      "ĠPlease": 3987,
      "ĠDaily": 3988,
      "ĠBel": 3989,
      "ĠFake": 3990,
      "ĠFollow": 3991,
      "Ġpredict": 3992,
      "ecraft": 3993,
      "Ġnumber": 3994,
      "ĠStyle": 3995,
      "ully": 3996,
      "ĠVenture": 3997,
      "ector": 3998,
      "ended": 3999,
      "Ġbegin": 4000,
      "Ġ--": 4001,
      "ĠScale": 4002,
      "Ġequ": 4003,
      "ousing": 4004,
      "ĠForce": 4005,
      "ĠIndex": 4006,
      "ĠPerfect": 4007,
      "Ġoffers": 4008,
      "ĠCollection": 4009,
      "ĠCrisis": 4010,
      "Ġbring": 4011,
      "ĠTravel": 4012,
      "ĠSuccessful": 4013,
      "Ġcyber": 4014,
      "ĠEnterprise": 4015,
      "ĠJeff": 4016,
      "ĠPaul": 4017,
      "iev": 4018,
      "pin": 4019,
      "ufact": 4020,
      "work": 4021,
      "onents": 4022,
      "Ġtarget": 4023,
      "ĠCit": 4024,
      "Ġfollow": 4025,
      "ĠPandemic": 4026,
      "ĠMS": 4027,
      "edly": 4028,
      "ĠBan": 4029,
      "Ġpush": 4030,
      "Ġdue": 4031,
      "ĠLarge": 4032,
      "ĠES": 4033,
      "entication": 4034,
      "ĠName": 4035,
      "ĠSteps": 4036,
      "ements": 4037,
      "Ġvirtual": 4038,
      "ĠTrends": 4039,
      "Ġwhile": 4040,
      "Ġapproach": 4041,
      "ĠUsed": 4042,
      "ĠInto": 4043,
      "ĠGoes": 4044,
      "Ġresults": 4045,
      "Ġdeploy": 4046,
      "heme": 4047,
      "Ġengineer": 4048,
      "Ġgroup": 4049,
      "Ġpassword": 4050,
      "ĠSimpl": 4051,
      "Ġlinks": 4052,
      "Ġmicro": 4053,
      "ww": 4054,
      "Ø¨": 4055,
      "Ġtreat": 4056,
      "ĠSent": 4057,
      "ĠSeek": 4058,
      "ĠAR": 4059,
      "ĠCampaign": 4060,
      "ĠPodcast": 4061,
      "ĠRace": 4062,
      "Ġbot": 4063,
      "ĠLevel": 4064,
      "Ġmethod": 4065,
      "ascript": 4066,
      "ivil": 4067,
      "Ġlarge": 4068,
      "Ġhot": 4069,
      "Ġstock": 4070,
      "pens": 4071,
      "Ġscreen": 4072,
      "ĠEmacs": 4073,
      "arns": 4074,
      "ĠCollege": 4075,
      "Ġhacker": 4076,
      "Ġimprove": 4077,
      "ercial": 4078,
      "ĠKindle": 4079,
      "ansomware": 4080,
      "An": 4081,
      "Ass": 4082,
      "bs": 4083,
      "code": 4084,
      "craft": 4085,
      "go": 4086,
      "hold": 4087,
      "side": 4088,
      "ined": 4089,
      "enger": 4090,
      "ĠCulture": 4091,
      "str": 4092,
      "edom": 4093,
      "Ġca": 4094,
      "Ġboost": 4095,
      "Ġmust": 4096,
      "using": 4097,
      "Ġlatest": 4098,
      "Ġlaunched": 4099,
      "ĠStates": 4100,
      "Ġstreaming": 4101,
      "ĠConference": 4102,
      "Ġsharing": 4103,
      "Ġlets": 4104,
      "Ġchildren": 4105,
      "Ġhead": 4106,
      "rypted": 4107,
      "ruction": 4108,
      "Ġquality": 4109,
      "ĠAgile": 4110,
      "Ġaccounts": 4111,
      "Ġreveals": 4112,
      "ĠTransform": 4113,
      "annel": 4114,
      "Ġblockchain": 4115,
      "Ġadvice": 4116,
      "ĠChanges": 4117,
      "ĠProgrammer": 4118,
      "Cloud": 4119,
      "ĠQuality": 4120,
      "Tech": 4121,
      "do": 4122,
      "log": 4123,
      "ne": 4124,
      "ta": 4125,
      "Ùħ": 4126,
      "ĠAud": 4127,
      "ĠCat": 4128,
      "ĠCert": 4129,
      "ĠMart": 4130,
      "Ġcross": 4131,
      "ĠBot": 4132,
      "ecast": 4133,
      "even": 4134,
      "ĠJournal": 4135,
      "ĠThese": 4136,
      "Ġuseful": 4137,
      "ellite": 4138,
      "ensive": 4139,
      "ĠAdobe": 4140,
      "Ġscale": 4141,
      "Ġaddress": 4142,
      "ĠFrance": 4143,
      "ĠAtl": 4144,
      "oke": 4145,
      "ĠCommand": 4146,
      "ĠStripe": 4147,
      "ĠValue": 4148,
      "ĠExplor": 4149,
      "ĠEven": 4150,
      "ĠStarted": 4151,
      "Ġsolar": 4152,
      "ĠMulti": 4153,
      "Ġtraffic": 4154,
      "ĠPresident": 4155,
      "Ġpackage": 4156,
      "ĠCollabor": 4157,
      "ĠGalaxy": 4158,
      "ĠFBI": 4159,
      "ĠDIY": 4160,
      "18": 4161,
      "64": 4162,
      "Part": 4163,
      "part": 4164,
      "ĠTen": 4165,
      "ĠTom": 4166,
      "ĠTik": 4167,
      "ĠHumans": 4168,
      "Ġage": 4169,
      "ĠMust": 4170,
      "Ġsale": 4171,
      "Ġcamera": 4172,
      "ĠFA": 4173,
      "Ġtheory": 4174,
      "Ġbillion": 4175,
      "Ġput": 4176,
      "Ġpaper": 4177,
      "chron": 4178,
      "Ġload": 4179,
      "ĠStreaming": 4180,
      "Ġyet": 4181,
      "ĠVue": 4182,
      "ĠVoice": 4183,
      "ĠShoes": 4184,
      "earing": 4185,
      "istant": 4186,
      "endo": 4187,
      "grade": 4188,
      "ĠExchange": 4189,
      "Ġconc": 4190,
      "ĠAlgorithms": 4191,
      "azine": 4192,
      "ĠResources": 4193,
      "ĠUSB": 4194,
      "Ġmanage": 4195,
      "ĠMonitoring": 4196,
      "Ġmean": 4197,
      "Ġrecommend": 4198,
      "onomous": 4199,
      "ĠGenerator": 4200,
      "Ġcomputing": 4201,
      "Ġreading": 4202,
      "Ġcrash": 4203,
      "Ġbiggest": 4204,
      "Ġcreated": 4205,
      "ameras": 4206,
      "Ġfinally": 4207,
      "ĠStanford": 4208,
      "Do": 4209,
      "lim": 4210,
      "map": 4211,
      "ĠSend": 4212,
      "ĠDig": 4213,
      "Ġcity": 4214,
      "Ġclean": 4215,
      "Ġwell": 4216,
      "Ġinclud": 4217,
      "Ġbar": 4218,
      "ĠLatest": 4219,
      "Ġmove": 4220,
      "ami": 4221,
      "imin": 4222,
      "ĠâĢĶ": 4223,
      "Ġlargest": 4224,
      "ĠVideos": 4225,
      "ĠShop": 4226,
      "iples": 4227,
      "osition": 4228,
      "ainers": 4229,
      "Ġyourself": 4230,
      "ĠTruth": 4231,
      "ĠSpring": 4232,
      "Ġep": 4233,
      "coming": 4234,
      "ĠDriver": 4235,
      "Ġoffice": 4236,
      "ibraries": 4237,
      "Ġfounders": 4238,
      "tract": 4239,
      "Ġcollection": 4240,
      "Ġminutes": 4241,
      "Ġpolit": 4242,
      "ength": 4243,
      "70": 4244,
      "EA": 4245,
      "Tr": 4246,
      "Tok": 4247,
      "Un": 4248,
      "got": 4249,
      "iate": 4250,
      "orry": 4251,
      "ĠAff": 4252,
      "hel": 4253,
      "ĠCra": 4254,
      "ĠCell": 4255,
      "Ġfew": 4256,
      "Ġfeedback": 4257,
      "ĠPok": 4258,
      "ĠPeter": 4259,
      "ico": 4260,
      "Ġsolution": 4261,
      "Ġsuggest": 4262,
      "ĠBall": 4263,
      "ĠFit": 4264,
      "ĠFocus": 4265,
      "ĠReb": 4266,
      "Ġpast": 4267,
      "ĠLock": 4268,
      "ĠEsc": 4269,
      "Ġmark": 4270,
      "Ġlittle": 4271,
      "ĠJan": 4272,
      "istakes": 4273,
      "ifest": 4274,
      "ĠIsn": 4275,
      "ĠCompet": 4276,
      "Ġ24": 4277,
      "print": 4278,
      "ients": 4279,
      "ĠImm": 4280,
      "athon": 4281,
      "ĠBiggest": 4282,
      "ĠDevOps": 4283,
      "Ġtechnical": 4284,
      "ĠGraphQL": 4285,
      "ĠInfrastructure": 4286,
      "ĠSmartphone": 4287,
      "ĠReturn": 4288,
      "ĠEveryone": 4289,
      "Ġrobots": 4290,
      "ĠJapanese": 4291,
      "ĠProcessing": 4292,
      "Ġfunding": 4293,
      "ĠSquare": 4294,
      "ĠKorea": 4295,
      "ĠMongoDB": 4296,
      "PS": 4297,
      "VE": 4298,
      "eets": 4299,
      "hood": 4300,
      "wood": 4301,
      "ĠSoc": 4302,
      "ĠSix": 4303,
      "ĠAwesome": 4304,
      "ĠTiny": 4305,
      "oub": 4306,
      "ĠMove": 4307,
      "ĠWorth": 4308,
      "ĠDan": 4309,
      "ĠDen": 4310,
      "ĠLanguages": 4311,
      "ĠNike": 4312,
      "amed": 4313,
      "igur": 4314,
      "ĠSharing": 4315,
      "ĠIsra": 4316,
      "oston": 4317,
      "ĠReverse": 4318,
      "Ġenvironment": 4319,
      "rict": 4320,
      "ĠDesigning": 4321,
      "ĠComputers": 4322,
      "ĠBrand": 4323,
      "Ġmodels": 4324,
      "ĠDevices": 4325,
      "ĠDebt": 4326,
      "ĠPhoto": 4327,
      "Ġposts": 4328,
      "ĠLabs": 4329,
      "ĠGerman": 4330,
      "bersecurity": 4331,
      "Ġeconomy": 4332,
      "Ġlegal": 4333,
      "ĠChristmas": 4334,
      "PG": 4335,
      "bably": 4336,
      "house": 4337,
      "mo": 4338,
      "mart": 4339,
      "era": 4340,
      "Ġtaking": 4341,
      "ĠSDK": 4342,
      "ĠTarget": 4343,
      "ĠCoin": 4344,
      "ĠCrowd": 4345,
      "reens": 4346,
      "ĠPath": 4347,
      "icious": 4348,
      "ĠDays": 4349,
      "Ġsex": 4350,
      "Ġsound": 4351,
      "Ġcut": 4352,
      "isition": 4353,
      "ĠLic": 4354,
      "entation": 4355,
      "aser": 4356,
      "ecution": 4357,
      "ooth": 4358,
      "ida": 4359,
      "ola": 4360,
      "ĠInvent": 4361,
      "Ġnet": 4362,
      "ĠVacc": 4363,
      "ĠThing": 4364,
      "ĠComplex": 4365,
      "ude": 4366,
      "onsive": 4367,
      "ologies": 4368,
      "arming": 4369,
      "ĠEditor": 4370,
      "ĠSlow": 4371,
      "ĠRobots": 4372,
      "ĠDiscover": 4373,
      "ĠDoesn": 4374,
      "ĠAccount": 4375,
      "ifference": 4376,
      "ĠAvoid": 4377,
      "ĠUniverse": 4378,
      "ĠAfrica": 4379,
      "13": 4380,
      "EM": 4381,
      "TA": 4382,
      "iences": 4383,
      "pose": 4384,
      "pired": 4385,
      "val": 4386,
      "arian": 4387,
      "ĠTensor": 4388,
      "Ġfirm": 4389,
      "ĠPR": 4390,
      "ĠMatter": 4391,
      "Ġsal": 4392,
      "ĠBoston": 4393,
      "Ġword": 4394,
      "Ġpaid": 4395,
      "oogle": 4396,
      "ament": 4397,
      "ĠOct": 4398,
      "Ġlaptop": 4399,
      "ĠStars": 4400,
      "ĠAnonymous": 4401,
      "ĠRein": 4402,
      "ĠScreen": 4403,
      "ugg": 4404,
      "rown": 4405,
      "ĠDrone": 4406,
      "Ġinterface": 4407,
      "ĠProductivity": 4408,
      "ĠProtocol": 4409,
      "Ġready": 4410,
      "ĠCryptocurrency": 4411,
      "ĠDelivery": 4412,
      "Ġpolice": 4413,
      "ĠAvailable": 4414,
      "Ġvalue": 4415,
      "ĠFeature": 4416,
      "ĠInternational": 4417,
      "ĠDavid": 4418,
      "CP": 4419,
      "Year": 4420,
      "break": 4421,
      "equ": 4422,
      "gn": 4423,
      "wide": 4424,
      "ĠTreat": 4425,
      "ĠCa": 4426,
      "ĠHidden": 4427,
      "Ġfocus": 4428,
      "ĠMill": 4429,
      "ications": 4430,
      "Ġculture": 4431,
      "ĠBattery": 4432,
      "ĠFCC": 4433,
      "Ġdark": 4434,
      "Ġstep": 4435,
      "upid": 4436,
      "iber": 4437,
      "ĠExpress": 4438,
      "ĠUnited": 4439,
      "Ġlead": 4440,
      "Ġleft": 4441,
      "Ġ23": 4442,
      "Ġcompet": 4443,
      "ixir": 4444,
      "Ġorgan": 4445,
      "Ġunivers": 4446,
      "ĠRedu": 4447,
      "Ġevent": 4448,
      "ĠDevice": 4449,
      "Ġbecause": 4450,
      "Ġprotect": 4451,
      "brid": 4452,
      "ĠMoving": 4453,
      "ĠTeams": 4454,
      "ĠCenter": 4455,
      "Ġattacks": 4456,
      "Ġmultiple": 4457,
      "Ġanti": 4458,
      "ĠKickstarter": 4459,
      "40": 4460,
      "LS": 4461,
      "ham": 4462,
      "yes": 4463,
      "Ġur": 4464,
      "Ġtimes": 4465,
      "ĠSeat": 4466,
      "ĠAS": 4467,
      "itz": 4468,
      "Ġfavorite": 4469,
      "ĠMis": 4470,
      "ĠWalk": 4471,
      "ĠRank": 4472,
      "ĠLL": 4473,
      "Ġmat": 4474,
      "Ġmalware": 4475,
      "imum": 4476,
      "Ġland": 4477,
      "Ġlay": 4478,
      "ceed": 4479,
      "empt": 4480,
      "apse": 4481,
      "ĠCompetition": 4482,
      "Ġexist": 4483,
      "ĠBeautiful": 4484,
      "jection": 4485,
      "ĠFrench": 4486,
      "ĠNetworking": 4487,
      "Ġimpact": 4488,
      "Ġcollect": 4489,
      "Ġgeneration": 4490,
      "Ġeduc": 4491,
      "ĠPassword": 4492,
      "Ġfunction": 4493,
      "ĠEncryption": 4494,
      "ĠPractices": 4495,
      "ĠAstron": 4496,
      "Ġcourt": 4497,
      "ĠGolang": 4498,
      "ĠTikTok": 4499,
      "Bay": 4500,
      "co": 4501,
      "dro": 4502,
      "faces": 4503,
      "Ø¯": 4504,
      "Ġear": 4505,
      "ĠSam": 4506,
      "ĠAction": 4507,
      "ĠTry": 4508,
      "ĠCome": 4509,
      "reation": 4510,
      "Ġfact": 4511,
      "ĠPip": 4512,
      "Ġast": 4513,
      "ĠMV": 4514,
      "ĠMethod": 4515,
      "ĠMalware": 4516,
      "ĠIDE": 4517,
      "ĠDifferent": 4518,
      "Ġsil": 4519,
      "ĠBid": 4520,
      "ĠBraz": 4521,
      "ached": 4522,
      "ĠRock": 4523,
      "Ġbit": 4524,
      "omin": 4525,
      "ĠNight": 4526,
      "olen": 4527,
      "add": 4528,
      "Ġlines": 4529,
      "ĠSte": 4530,
      "agn": 4531,
      "Ġstay": 4532,
      "ĠJack": 4533,
      "osed": 4534,
      "exus": 4535,
      "Ġvers": 4536,
      "ĠChip": 4537,
      "Ġprovid": 4538,
      "Ġrate": 4539,
      "gres": 4540,
      "Ġplugin": 4541,
      "letter": 4542,
      "ĠRecommend": 4543,
      "intendo": 4544,
      "Ġdrive": 4545,
      "ĠObs": 4546,
      "ĠMini": 4547,
      "Ġ2023": 4548,
      "Ġstrategy": 4549,
      "Ġreality": 4550,
      "ĠInvestment": 4551,
      "ocuments": 4552,
      "eaks": 4553,
      "ĠScaling": 4554,
      "Ġkeyboard": 4555,
      "ĠOptimization": 4556,
      "Ġswitch": 4557,
      "Ġsuccessful": 4558,
      "ocracy": 4559,
      "ĠBritish": 4560,
      "elebr": 4561,
      "utrality": 4562,
      "ĠBrazil": 4563,
      "Co": 4564,
      "Or": 4565,
      "cious": 4566,
      "gers": 4567,
      "han": 4568,
      "lang": 4569,
      "res": 4570,
      "vas": 4571,
      "Ġest": 4572,
      "Ġouts": 4573,
      "Ġtype": 4574,
      "anch": 4575,
      "atics": 4576,
      "ĠSal": 4577,
      "ĠTer": 4578,
      "ĠHat": 4579,
      "reh": 4580,
      "rem": 4581,
      "ĠWell": 4582,
      "ĠID": 4583,
      "ĠDiv": 4584,
      "Ġcool": 4585,
      "Ġcert": 4586,
      "ĠFamily": 4587,
      "ĠRap": 4588,
      "ĠLiving": 4589,
      "elines": 4590,
      "ĠNintendo": 4591,
      "Ġlic": 4592,
      "Ġlanguages": 4593,
      "ĠClick": 4594,
      "ĠPress": 4595,
      "Ġjournal": 4596,
      "prising": 4597,
      "ĠReveal": 4598,
      "Ġquick": 4599,
      "ictures": 4600,
      "Ġ80": 4601,
      "Ġeverything": 4602,
      "ĠUseful": 4603,
      "Ġrevolution": 4604,
      "poses": 4605,
      "ĠPolicy": 4606,
      "ĠFinally": 4607,
      "Ġsomeone": 4608,
      "Ġeveryone": 4609,
      "ĠLegal": 4610,
      "Ġchanged": 4611,
      "ĠBasic": 4612,
      "Ġgrowth": 4613,
      "ĠTypes": 4614,
      "ĠØ§ÙĦØ": 4615,
      "ĠImportant": 4616,
      "Ġentrepreneurs": 4617,
      "estroy": 4618,
      "ĠWhatsApp": 4619,
      "Kit": 4620,
      "RC": 4621,
      "gl": 4622,
      "link": 4623,
      "note": 4624,
      "rix": 4625,
      "set": 4626,
      "ĠAway": 4627,
      "inger": 4628,
      "ĠCities": 4629,
      "ĠCopyright": 4630,
      "rect": 4631,
      "lev": 4632,
      "Ġfire": 4633,
      "ĠMil": 4634,
      "ĠMad": 4635,
      "ĠDear": 4636,
      "ĠDie": 4637,
      "Ġsame": 4638,
      "ĠBro": 4639,
      "acity": 4640,
      "ĠLittle": 4641,
      "Ġmyst": 4642,
      "ĠNumber": 4643,
      "ĠNatural": 4644,
      "igs": 4645,
      "olf": 4646,
      "ĠStories": 4647,
      "ĠVS": 4648,
      "aken": 4649,
      "ĠJourney": 4650,
      "istry": 4651,
      "ĠPrint": 4652,
      "ĠArg": 4653,
      "Ġspeech": 4654,
      "ĠHacked": 4655,
      "ĠFlow": 4656,
      "Ġenough": 4657,
      "ĠElixir": 4658,
      "ĠImpact": 4659,
      "ĠReleases": 4660,
      "ĠInstant": 4661,
      "ĠSkype": 4662,
      "ĠDiscovery": 4663,
      "ĠGrowing": 4664,
      "ĠMagic": 4665,
      "ĠSafari": 4666,
      "Ġlonger": 4667,
      "Ġencryption": 4668,
      "ĠProgrammers": 4669,
      "ĠPhysics": 4670,
      "ĠHeroku": 4671,
      "ĠNFT": 4672,
      "ĠTexas": 4673,
      "And": 4674,
      "LA": 4675,
      "RE": 4676,
      "gins": 4677,
      "ios": 4678,
      "page": 4679,
      "Âł": 4680,
      "ÙĨ": 4681,
      "Ġill": 4682,
      "Ġtutorial": 4683,
      "ĠSO": 4684,
      "ĠCash": 4685,
      "ĠCover": 4686,
      "ĠCamera": 4687,
      "alent": 4688,
      "ĠHit": 4689,
      "ĠMur": 4690,
      "ĠMir": 4691,
      "ĠWel": 4692,
      "ĠDiff": 4693,
      "Ġcome": 4694,
      "Ġcurrent": 4695,
      "ĠFeedback": 4696,
      "âĢ¦": 4697,
      "Ġpoint": 4698,
      "elanc": 4699,
      "ided": 4700,
      "utter": 4701,
      "usive": 4702,
      "otyp": 4703,
      "ourced": 4704,
      "ews": 4705,
      "ĠStep": 4706,
      "Ġhits": 4707,
      "acked": 4708,
      "Ġstream": 4709,
      "abs": 4710,
      "aven": 4711,
      "verage": 4712,
      "ĠTrue": 4713,
      "ĠTrade": 4714,
      "orders": 4715,
      "ommerce": 4716,
      "ĠUses": 4717,
      "ĠAdvent": 4718,
      "Ġcancer": 4719,
      "ĠDrug": 4720,
      "ĠTests": 4721,
      "ĠGeneral": 4722,
      "ĠReader": 4723,
      "ĠFounders": 4724,
      "ĠParad": 4725,
      "Ġcomputers": 4726,
      "ĠPatterns": 4727,
      "Ġcollege": 4728,
      "ĠKeyboard": 4729,
      "ĠAdvanced": 4730,
      "ĠCustomers": 4731,
      "Ġteams": 4732,
      "Ġfinancial": 4733,
      "Ġcollabor": 4734,
      "Ġstandard": 4735,
      "ĠUltimate": 4736,
      "where": 4737,
      "ĠBootstrap": 4738,
      "cont": 4739,
      "her": 4740,
      "mic": 4741,
      "rum": 4742,
      "ua": 4743,
      "ĠSolution": 4744,
      "ĠSites": 4745,
      "ĠTel": 4746,
      "ĠCoffee": 4747,
      "ĠHP": 4748,
      "ĠMigr": 4749,
      "ĠWild": 4750,
      "Ġselling": 4751,
      "ĠFort": 4752,
      "ĠRSS": 4753,
      "ĠRocket": 4754,
      "Ġbox": 4755,
      "Ġdone": 4756,
      "Ġstack": 4757,
      "Ġstyle": 4758,
      "aved": 4759,
      "ĠCharg": 4760,
      "ĠConver": 4761,
      "ormal": 4762,
      "ĠCompiler": 4763,
      "ĠComparison": 4764,
      "ension": 4765,
      "ĠQue": 4766,
      "Ġprices": 4767,
      "Ġadds": 4768,
      "ĠQuestion": 4769,
      "argets": 4770,
      "2008": 4771,
      "ĠPreview": 4772,
      "ĠExplained": 4773,
      "Ġflaw": 4774,
      "ĠProducts": 4775,
      "Ġ199": 4776,
      "Ġgenerator": 4777,
      "Ġknowledge": 4778,
      "ĠPlanet": 4779,
      "iques": 4780,
      "ĠDemo": 4781,
      "ĠThinking": 4782,
      "ĠSafe": 4783,
      "Ġreturn": 4784,
      "ĠBreaking": 4785,
      "ĠAuthor": 4786,
      "ĠAttacks": 4787,
      "Ġauthor": 4788,
      "Ġimplementation": 4789,
      "ĠWireless": 4790,
      "ĠAlpha": 4791,
      "ospital": 4792,
      "Ġetc": 4793,
      "End": 4794,
      "It": 4795,
      "TS": 4796,
      "au": 4797,
      "founder": 4798,
      "ray": 4799,
      "ãĤ": 4800,
      "orrow": 4801,
      "ĠApr": 4802,
      "ĠTaking": 4803,
      "ĠHD": 4804,
      "ĠPsych": 4805,
      "Ġservers": 4806,
      "Ġcat": 4807,
      "Ġcell": 4808,
      "aced": 4809,
      "ĠRew": 4810,
      "Ġbattle": 4811,
      "ĠLar": 4812,
      "ĠLaptop": 4813,
      "Ġmer": 4814,
      "ece": 4815,
      "ooting": 4816,
      "Ġhalf": 4817,
      "Ġsteps": 4818,
      "Ġstaff": 4819,
      "ĠJames": 4820,
      "istan": 4821,
      "Ġthree": 4822,
      "ustain": 4823,
      "ĠIssues": 4824,
      "inder": 4825,
      "ĠEnvironment": 4826,
      "ĠExecut": 4827,
      "ĠSpeech": 4828,
      "ĠDoing": 4829,
      "ĠLeaders": 4830,
      "Ġalready": 4831,
      "Ġresources": 4832,
      "ĠAtom": 4833,
      "Ġallow": 4834,
      "Ġrock": 4835,
      "Ġaren": 4836,
      "ĠExploring": 4837,
      "ĠManaging": 4838,
      "ĠReviews": 4839,
      "ĠCreative": 4840,
      "ĠNeu": 4841,
      "ĠScientist": 4842,
      "ĠMarkdown": 4843,
      "ĠSetting": 4844,
      "Ġsubm": 4845,
      "ĠWiki": 4846,
      "ĠContinuous": 4847,
      "ĠIran": 4848,
      "ĠPhilosoph": 4849,
      "ttp": 4850,
      "ĠTraining": 4851,
      "Ġeasier": 4852,
      "AM": 4853,
      "Bl": 4854,
      "Free": 4855,
      "IF": 4856,
      "band": 4857,
      "mon": 4858,
      "pack": 4859,
      "Ġtick": 4860,
      "ĠSir": 4861,
      "ĠCut": 4862,
      "oups": 4863,
      "ĠHash": 4864,
      "Ġfeed": 4865,
      "ĠPo": 4866,
      "ĠPast": 4867,
      "ĠWest": 4868,
      "ĠIS": 4869,
      "ĠDut": 4870,
      "Ġsent": 4871,
      "ĠBal": 4872,
      "ĠGod": 4873,
      "ilar": 4874,
      "Ġdep": 4875,
      "ĠLay": 4876,
      "Ġmath": 4877,
      "imm": 4878,
      "unn": 4879,
      "emale": 4880,
      "Ġreact": 4881,
      "rab": 4882,
      "Ġstatic": 4883,
      "ocs": 4884,
      "ipts": 4885,
      "ogs": 4886,
      "ĠUnic": 4887,
      "Ġlevel": 4888,
      "ĠPrices": 4889,
      "rowds": 4890,
      "ĠAdds": 4891,
      "ĠCancer": 4892,
      "erns": 4893,
      "ĠUSA": 4894,
      "ĠLean": 4895,
      "ĠFlor": 4896,
      "ĠXbox": 4897,
      "ĠRecognition": 4898,
      "Ġrecognition": 4899,
      "ucks": 4900,
      "ĠHeart": 4901,
      "ĠAcadem": 4902,
      "ĠFinal": 4903,
      "Ġprevent": 4904,
      "Ġcreating": 4905,
      "roller": 4906,
      "Ġinstead": 4907,
      "ĠMedical": 4908,
      "ĠAngel": 4909,
      "ĠVCs": 4910,
      "ĠChanging": 4911,
      "swers": 4912,
      "Ġskills": 4913,
      "ĠTypeScript": 4914,
      "Ġcountry": 4915,
      "Flow": 4916,
      "Assembly": 4917,
      "35": 4918,
      "BO": 4919,
      "Work": 4920,
      "gg": 4921,
      "iot": 4922,
      "look": 4923,
      "papers": 4924,
      "Ġtell": 4925,
      "Ġtempl": 4926,
      "ĠSoft": 4927,
      "ĠTour": 4928,
      "ĠTuring": 4929,
      "Ġfailed": 4930,
      "ĠPe": 4931,
      "ĠMechan": 4932,
      "ĠWW": 4933,
      "ĠBuff": 4934,
      "ĠBoost": 4935,
      "ĠBroad": 4936,
      "ĠReth": 4937,
      "Ġpath": 4938,
      "Ġdies": 4939,
      "ĠEV": 4940,
      "ĠNexus": 4941,
      "olved": 4942,
      "Ġlock": 4943,
      "Ġnight": 4944,
      "ĠSteam": 4945,
      "lywood": 4946,
      "Ġvirus": 4947,
      "Ġrich": 4948,
      "ĠIssue": 4949,
      "overs": 4950,
      "ĠTrading": 4951,
      "Ġclaims": 4952,
      "ĠZen": 4953,
      "ĠReveals": 4954,
      "atching": 4955,
      "rowsers": 4956,
      "Ġinteractive": 4957,
      "ĠPostgres": 4958,
      "ĠSky": 4959,
      "ĠReady": 4960,
      "ructures": 4961,
      "ĠConsider": 4962,
      "Ġcomments": 4963,
      "essional": 4964,
      "ĠTeach": 4965,
      "offs": 4966,
      "Ġdiscuss": 4967,
      "Ġdidn": 4968,
      "ĠMedium": 4969,
      "ISC": 4970,
      "Ġteach": 4971,
      "ĠAustralian": 4972,
      "ĠRichard": 4973,
      "Ġzero": 4974,
      "Ġcourse": 4975,
      "forcement": 4976,
      "ĠIntegration": 4977,
      "Ġincrease": 4978,
      "powered": 4979,
      "bedded": 4980,
      "BA": 4981,
      "CA": 4982,
      "FS": 4983,
      "zos": 4984,
      "Ø³": 4985,
      "ĠSer": 4986,
      "arr": 4987,
      "ĠCD": 4988,
      "ĠHours": 4989,
      "Ġfeel": 4990,
      "ĠPop": 4991,
      "ĠPerson": 4992,
      "ĠDraw": 4993,
      "Ġcampaign": 4994,
      "ĠBoom": 4995,
      "Ġwarns": 4996,
      "ĠFox": 4997,
      "ĠFailed": 4998,
      "ĠRen": 4999,
      "Ġperson": 5000,
      "elt": 5001,
      "oots": 5002,
      "Ġlikely": 5003,
      "Ġnames": 5004,
      "Ġneural": 5005,
      "aged": 5006,
      "ague": 5007,
      "uling": 5008,
      "ĠVan": 5009,
      "Ġstories": 5010,
      "istration": 5011,
      "ipl": 5012,
      "oser": 5013,
      "ĠProof": 5014,
      "Ġconvers": 5015,
      "ousands": 5016,
      "ĠMicha": 5017,
      "Ġprin": 5018,
      "ancy": 5019,
      "ĠFlight": 5020,
      "ĠSuck": 5021,
      "Ġroad": 5022,
      "Ġroll": 5023,
      "ĠParty": 5024,
      "ĠStrateg": 5025,
      "ĠSwed": 5026,
      "ĠStudents": 5027,
      "ĠSurveillance": 5028,
      "ĠGenerate": 5029,
      "ĠDisney": 5030,
      "ĠDiscuss": 5031,
      "Ġpasswords": 5032,
      "Ġunderst": 5033,
      "Ġactually": 5034,
      "Ġphoto": 5035,
      "Ġmessages": 5036,
      "ĠResponse": 5037,
      "ĠCareer": 5038,
      "espite": 5039,
      "ĠSummer": 5040,
      "ĠVPN": 5041,
      "comput": 5042,
      "Ġfriends": 5043,
      "ensorship": 5044,
      "iest": 5045,
      "vis": 5046,
      "ĠSort": 5047,
      "ĠSEC": 5048,
      "ĠHire": 5049,
      "ĠMal": 5050,
      "ĠMilitary": 5051,
      "ĠWave": 5052,
      "Ġsend": 5053,
      "ĠBoy": 5054,
      "ĠRay": 5055,
      "ĠRoll": 5056,
      "Ġbroad": 5057,
      "ĠGar": 5058,
      "eck": 5059,
      "ĠUt": 5060,
      "Ġhire": 5061,
      "Ġhumans": 5062,
      "lymp": 5063,
      "ĠProv": 5064,
      "ĠProper": 5065,
      "ĠReason": 5066,
      "Ġvulnerability": 5067,
      "ĠConv": 5068,
      "izations": 5069,
      "ĠExcel": 5070,
      "udget": 5071,
      "ĠWebGL": 5072,
      "ĠWebAssembly": 5073,
      "ĠPlus": 5074,
      "ĠjQuery": 5075,
      "ationship": 5076,
      "ashion": 5077,
      "Ġprint": 5078,
      "Ġnotes": 5079,
      "ĠJavascript": 5080,
      "ĠZoom": 5081,
      "ĠSecrets": 5082,
      "ĠLead": 5083,
      "onds": 5084,
      "Ġalmost": 5085,
      "Ġemails": 5086,
      "eeks": 5087,
      "redic": 5088,
      "Ġ70": 5089,
      "ĠSequ": 5090,
      "ĠStudent": 5091,
      "ĠSurface": 5092,
      "ĠCrash": 5093,
      "atabases": 5094,
      "Ġstarting": 5095,
      "ĠAutomation": 5096,
      "ĠFormer": 5097,
      "ĠBenefits": 5098,
      "ĠUniversal": 5099,
      "ĠAdding": 5100,
      "ĠClassic": 5101,
      "Ġreviews": 5102,
      "Ġobject": 5103,
      "ĠFreedom": 5104,
      "Ġhosting": 5105,
      "ĠPrinciples": 5106,
      "ĠApril": 5107,
      "Code": 5108,
      "NA": 5109,
      "Re": 5110,
      "Stack": 5111,
      "To": 5112,
      "aire": 5113,
      "care": 5114,
      "ke": 5115,
      "ny": 5116,
      "Ġtouch": 5117,
      "ĠAudio": 5118,
      "ĠHu": 5119,
      "Ġfirms": 5120,
      "ĠPS": 5121,
      "ĠPars": 5122,
      "ĠPages": 5123,
      "ĠPotential": 5124,
      "ĠMachines": 5125,
      "ĠWere": 5126,
      "ĠISP": 5127,
      "Ġsomething": 5128,
      "Ġcover": 5129,
      "ĠBroken": 5130,
      "owers": 5131,
      "ĠFeed": 5132,
      "ĠFirm": 5133,
      "ĠRC": 5134,
      "ĠRate": 5135,
      "ĠLoad": 5136,
      "ĠLoss": 5137,
      "Ġmode": 5138,
      "Ġmatter": 5139,
      "adu": 5140,
      "chat": 5141,
      "Ġlib": 5142,
      "Ġnear": 5143,
      "Ġnative": 5144,
      "ĠStay": 5145,
      "ula": 5146,
      "Ġrepos": 5147,
      "ĠVirus": 5148,
      "Ġveh": 5149,
      "ĠKernel": 5150,
      "ĠTher": 5151,
      "ĠThought": 5152,
      "endar": 5153,
      "ĠComplete": 5154,
      "ĠBeen": 5155,
      "ĠAdvertising": 5156,
      "Ġeng": 5157,
      "flare": 5158,
      "ĠInterface": 5159,
      "ĠPrep": 5160,
      "Ġperfect": 5161,
      "ĠInstall": 5162,
      "Ġphones": 5163,
      "ĠEvents": 5164,
      "ĠSkills": 5165,
      "Ġcomes": 5166,
      "ĠIncome": 5167,
      "ĠDebugging": 5168,
      "ĠScientific": 5169,
      "ĠInvestors": 5170,
      "ception": 5171,
      "Ġsolve": 5172,
      "Ġcheap": 5173,
      "Ġanalytics": 5174,
      "ulnerabilities": 5175,
      "Ġhardware": 5176,
      "Ġhappened": 5177,
      "ĠSafety": 5178,
      "Ġturns": 5179,
      "orrent": 5180,
      "Ġelse": 5181,
      "ĠEssential": 5182,
      "ĠPixel": 5183,
      ")?": 5184,
      "For": 5185,
      "hot": 5186,
      "met": 5187,
      "Ġorder": 5188,
      "ĠSpl": 5189,
      "ĠSleep": 5190,
      "ĠTick": 5191,
      "ĠCamp": 5192,
      "ĠHun": 5193,
      "ĠHold": 5194,
      "ĠPain": 5195,
      "ĠPick": 5196,
      "ĠPoll": 5197,
      "Ġaffect": 5198,
      "ĠMast": 5199,
      "ĠWashing": 5200,
      "ĠIE": 5201,
      "ĠDO": 5202,
      "Ġsize": 5203,
      "ĠBubble": 5204,
      "ĠBirth": 5205,
      "Ġwire": 5206,
      "isions": 5207,
      "ĠRandom": 5208,
      "Ġinvent": 5209,
      "Ġbroken": 5210,
      "Ġpers": 5211,
      "Ġpages": 5212,
      "ĠGUI": 5213,
      "Ġdam": 5214,
      "Ġdisease": 5215,
      "Ġmachines": 5216,
      "Ġloss": 5217,
      "Ġlanding": 5218,
      "ager": 5219,
      "Ġgaming": 5220,
      "ulate": 5221,
      "Ġvoice": 5222,
      "endering": 5223,
      "Ġexecut": 5224,
      "ĠBezos": 5225,
      "ĠBlood": 5226,
      "Ġspy": 5227,
      "Ġclone": 5228,
      "Ġscal": 5229,
      "ĠItal": 5230,
      "198": 5231,
      "ĠOrder": 5232,
      "icture": 5233,
      "ĠBusinesses": 5234,
      "ĠRemember": 5235,
      "posal": 5236,
      "Ġevolution": 5237,
      "ĠParis": 5238,
      "Ġengineers": 5239,
      "ĠStarting": 5240,
      "ĠVisualization": 5241,
      "ĠFunction": 5242,
      "ields": 5243,
      "ĠKnowledge": 5244,
      "ĠDefense": 5245,
      "Ġweekend": 5246,
      "Ġhandle": 5247,
      "uzzle": 5248,
      "ĠMotor": 5249,
      "Ġcenter": 5250,
      "Ġacquires": 5251,
      "elieve": 5252,
      "ĠSSL": 5253,
      "ĠÂ£": 5254,
      "Driving": 5255,
      "Ġprogrammer": 5256,
      "entralized": 5257,
      "ĠMichael": 5258,
      "()": 5259,
      "//": 5260,
      "37": 5261,
      "://": 5262,
      "Google": 5263,
      "door": 5264,
      "opped": 5265,
      "paper": 5266,
      "ued": 5267,
      "Ġtrying": 5268,
      "orph": 5269,
      "ĠSMS": 5270,
      "het": 5271,
      "ĠCTO": 5272,
      "ĠHunt": 5273,
      "ĠPur": 5274,
      "ĠMaterial": 5275,
      "Ġsold": 5276,
      "Ġsafe": 5277,
      "Ġcod": 5278,
      "Ġothers": 5279,
      "acement": 5280,
      "Ġpop": 5281,
      "ĠGre": 5282,
      "ĠGirl": 5283,
      "ĠLy": 5284,
      "ĠNature": 5285,
      "idation": 5286,
      "idate": 5287,
      "ĠOlymp": 5288,
      "iger": 5289,
      "Ġlooks": 5290,
      "Ġher": 5291,
      "ĠVulnerability": 5292,
      "osc": 5293,
      "Ġthought": 5294,
      "ĠKong": 5295,
      "abled": 5296,
      "ĠSpy": 5297,
      "ĠUns": 5298,
      "Ġship": 5299,
      "Ġ22": 5300,
      "Ġcompiler": 5301,
      "Ġtrading": 5302,
      "ĠAround": 5303,
      "ĠOpenAI": 5304,
      "ĠArea": 5305,
      "ĠRedis": 5306,
      "ĠPartners": 5307,
      "Ġcommon": 5308,
      "Ġmonitoring": 5309,
      "Ġproductivity": 5310,
      "tensions": 5311,
      "rolling": 5312,
      "Ġarticles": 5313,
      "ĠAMA": 5314,
      "Ġhappens": 5315,
      "ĠHappy": 5316,
      "ĠErlang": 5317,
      "ĠKilling": 5318,
      "ĠEffective": 5319,
      "Ġletter": 5320,
      "Ġgraphics": 5321,
      "Ġarchitecture": 5322,
      "ĠWashington": 5323,
      "Founder": 5324,
      "RS": 5325,
      "lished": 5326,
      "inos": 5327,
      "inite": 5328,
      "ara": 5329,
      "ĠTempl": 5330,
      "Ġfac": 5331,
      "Ġfall": 5332,
      "Ġfaces": 5333,
      "ĠPull": 5334,
      "ĠPitch": 5335,
      "Ġaction": 5336,
      "ĠMillions": 5337,
      "roc": 5338,
      "ĠWed": 5339,
      "ĠWorst": 5340,
      "Ġtook": 5341,
      "Ġcities": 5342,
      "Ġcredit": 5343,
      "ĠBody": 5344,
      "Ġwalk": 5345,
      "ĠFly": 5346,
      "ĠFlex": 5347,
      "ĠRule": 5348,
      "anda": 5349,
      "Ġperm": 5350,
      "omy": 5351,
      "ĠOd": 5352,
      "ĠInflu": 5353,
      "Ġnode": 5354,
      "unes": 5355,
      "osph": 5356,
      "ĠPros": 5357,
      "ĠChildren": 5358,
      "apore": 5359,
      "Ġrandom": 5360,
      "mented": 5361,
      "Ġconv": 5362,
      "ĠClub": 5363,
      "Ġapprov": 5364,
      "Ġcomplete": 5365,
      "ĠAren": 5366,
      "ĠGuy": 5367,
      "ĠBrief": 5368,
      "ĠOffer": 5369,
      "ĠEdward": 5370,
      "ĠRemov": 5371,
      "Ġ90": 5372,
      "Ġhelps": 5373,
      "ĠPowerful": 5374,
      "ĠDebian": 5375,
      "Ġpayments": 5376,
      "Ġentire": 5377,
      "ĠLinks": 5378,
      "Ġpolicy": 5379,
      "ĠTalks": 5380,
      "ruption": 5381,
      "ĠPrinting": 5382,
      "ARS": 5383,
      "escope": 5384,
      "ĠVerizon": 5385,
      "ĠSSH": 5386,
      "Ġcareer": 5387,
      "Conf": 5388,
      "ĠArmy": 5389,
      "ĠEmployees": 5390,
      "ĠCIA": 5391,
      "ĠCommunication": 5392,
      "ĠMissing": 5393,
      "ĠImproving": 5394,
      "Ġtablet": 5395,
      "ĠDynamic": 5396,
      "ĠSingapore": 5397,
      "Ġinnovation": 5398,
      "ĠExplorer": 5399,
      "iguration": 5400,
      "Ġeducation": 5401,
      "ĠBiden": 5402,
      "ĠFlorida": 5403,
      "AC": 5404,
      "Ar": 5405,
      "CD": 5406,
      "Go": 5407,
      "LL": 5408,
      "Pr": 5409,
      "gets": 5410,
      "na": 5411,
      "Ġut": 5412,
      "ĠSon": 5413,
      "ĠShell": 5414,
      "ĠTit": 5415,
      "ĠTree": 5416,
      "ĠTai": 5417,
      "ĠCam": 5418,
      "ĠHong": 5419,
      "ĠHero": 5420,
      "ĠPent": 5421,
      "ĠIce": 5422,
      "Ġscript": 5423,
      "Ġsaf": 5424,
      "Ġsumm": 5425,
      "Ġsusp": 5426,
      "ĠBet": 5427,
      "isode": 5428,
      "isks": 5429,
      "ĠFoot": 5430,
      "ĠFair": 5431,
      "Ġboot": 5432,
      "Ġpain": 5433,
      "Ġpotential": 5434,
      "ett": 5435,
      "ĠLa": 5436,
      "ĠLargest": 5437,
      "ĠEra": 5438,
      "elves": 5439,
      "iments": 5440,
      "urning": 5441,
      "ithub": 5442,
      "Ġyoung": 5443,
      "Ġgiant": 5444,
      "Ġreb": 5445,
      "istle": 5446,
      "apon": 5447,
      "ĠKit": 5448,
      "ĠUnc": 5449,
      "ĠYourself": 5450,
      "pres": 5451,
      "aze": 5452,
      "eft": 5453,
      "Ġadm": 5454,
      "ferences": 5455,
      "ĠMean": 5456,
      "ĠCloudflare": 5457,
      "Ġago": 5458,
      "ĠMonitor": 5459,
      "Ġdrone": 5460,
      "ĠConsumer": 5461,
      "Ġconsider": 5462,
      "Ġenter": 5463,
      "Ġartificial": 5464,
      "ĠWordpress": 5465,
      "ĠMagazine": 5466,
      "bye": 5467,
      "Ġdemo": 5468,
      "Ġsmartphone": 5469,
      "ipped": 5470,
      "ĠOperating": 5471,
      "Ġtalks": 5472,
      "Ġcalcul": 5473,
      "ĠGolden": 5474,
      "funding": 5475,
      "Ġcritical": 5476,
      "scription": 5477,
      "ĠPirate": 5478,
      "'ll": 5479,
      "Cont": 5480,
      "Net": 5481,
      "Old": 5482,
      "PL": 5483,
      "Sec": 5484,
      "TE": 5485,
      "Web": 5486,
      "ei": 5487,
      "fish": 5488,
      "ien": 5489,
      "tax": 5490,
      "uary": 5491,
      "Øª": 5492,
      "ini": 5493,
      "onent": 5494,
      "Ġtiny": 5495,
      "ester": 5496,
      "ĠSame": 5497,
      "ĠSelling": 5498,
      "ĠSARS": 5499,
      "arp": 5500,
      "iti": 5501,
      "ĠCA": 5502,
      "outer": 5503,
      "ĠHalf": 5504,
      "ĠPen": 5505,
      "ĠPossible": 5506,
      "Ġap": 5507,
      "icult": 5508,
      "ĠDV": 5509,
      "Ġshell": 5510,
      "Ġsleep": 5511,
      "Ġcoun": 5512,
      "ĠBBC": 5513,
      "Ġwent": 5514,
      "ĠRole": 5515,
      "ĠRoom": 5516,
      "oment": 5517,
      "ĠLets": 5518,
      "ĠEast": 5519,
      "ĠElection": 5520,
      "ota": 5521,
      "urt": 5522,
      "ago": 5523,
      "Ġge": 5524,
      "Ġsteal": 5525,
      "Ġvari": 5526,
      "ĠConvert": 5527,
      "ĠEnough": 5528,
      "Ġbeautiful": 5529,
      "ĠScott": 5530,
      "ording": 5531,
      "ternatives": 5532,
      "Ġkind": 5533,
      "ĠBlu": 5534,
      "iented": 5535,
      "azy": 5536,
      "ĠFlaw": 5537,
      "Ġ101": 5538,
      "Ġdrug": 5539,
      "urrencies": 5540,
      "ĠMining": 5541,
      "ĠFinds": 5542,
      "Ġdiscovery": 5543,
      "Ġpatents": 5544,
      "ĠBecame": 5545,
      "ĠMarch": 5546,
      "ĠEconomic": 5547,
      "Ġelectron": 5548,
      "ĠWeekly": 5549,
      "Ġmulti": 5550,
      "ĠFederal": 5551,
      "greg": 5552,
      "Ġresponse": 5553,
      "ĠTurning": 5554,
      "Ġcountries": 5555,
      "ĠAfrican": 5556,
      "Ġvery": 5557,
      "ĠMatters": 5558,
      "ufacturing": 5559,
      "ĠSeattle": 5560,
      "ĠWelcome": 5561,
      "04": 5562,
      "BS": 5563,
      "DD": 5564,
      "OR": 5565,
      "Pal": 5566,
      "aos": 5567,
      "iers": 5568,
      "los": 5569,
      "oz": 5570,
      "oen": 5571,
      "opp": 5572,
      "til": 5573,
      "wan": 5574,
      "ĠSuggest": 5575,
      "heets": 5576,
      "ĠHands": 5577,
      "rel": 5578,
      "ĠPaid": 5579,
      "ĠMount": 5580,
      "ĠDam": 5581,
      "ĠDies": 5582,
      "Ġcash": 5583,
      "Ġcopy": 5584,
      "Ġoil": 5585,
      "ĠGN": 5586,
      "Ġdie": 5587,
      "Ġdynam": 5588,
      "ĠLeft": 5589,
      "ĠEfficient": 5590,
      "elly": 5591,
      "amin": 5592,
      "amous": 5593,
      "ĠOil": 5594,
      "ado": 5595,
      "ĠYet": 5596,
      "ĠYoung": 5597,
      "ĠAncient": 5598,
      "Ġviol": 5599,
      "Ġbeyond": 5600,
      "ĠExpect": 5601,
      "ĠAddress": 5602,
      "ĠIntro": 5603,
      "Ġspeak": 5604,
      "Ġpress": 5605,
      "Ġunveils": 5606,
      "atches": 5607,
      "Ġcontract": 5608,
      "ĠMeas": 5609,
      "Ġ64": 5610,
      "ĠHTC": 5611,
      "Ġflight": 5612,
      "ĠMinimal": 5613,
      "ĠLaunching": 5614,
      "driving": 5615,
      "driven": 5616,
      "ĠParallel": 5617,
      "Ġmonitor": 5618,
      "rovers": 5619,
      "Ġcolor": 5620,
      "Ġpowerful": 5621,
      "Ġvision": 5622,
      "ĠBecoming": 5623,
      "Ġmoving": 5624,
      "Ġmovie": 5625,
      "ĠHarv": 5626,
      "ĠFailure": 5627,
      "razy": 5628,
      "ĠImplementation": 5629,
      "ĠFilm": 5630,
      "ĠSupreme": 5631,
      "ĠFriends": 5632,
      "ergency": 5633,
      "Ġchallenge": 5634,
      "300": 5635,
      "DS": 5636,
      "Don": 5637,
      "Pass": 5638,
      "TX": 5639,
      "dom": 5640,
      "hop": 5641,
      "hips": 5642,
      "lab": 5643,
      "oat": 5644,
      "well": 5645,
      "inux": 5646,
      "Ġtry": 5647,
      "atical": 5648,
      "ĠST": 5649,
      "hedu": 5650,
      "ĠCle": 5651,
      "ĠHor": 5652,
      "ĠHate": 5653,
      "ĠHarm": 5654,
      "rec": 5655,
      "real": 5656,
      "Ġfive": 5657,
      "ĠMode": 5658,
      "ĠMaker": 5659,
      "icate": 5660,
      "ĠDell": 5661,
      "Ġsym": 5662,
      "Ġseen": 5663,
      "ĠBul": 5664,
      "Ġwords": 5665,
      "ĠFord": 5666,
      "ĠRack": 5667,
      "ĠRISC": 5668,
      "Ġbubble": 5669,
      "Ġpodcast": 5670,
      "Ġpandemic": 5671,
      "ĠGaming": 5672,
      "ĠEffects": 5673,
      "ĠNear": 5674,
      "ĠNearly": 5675,
      "aml": 5676,
      "Ġlocation": 5677,
      "ĠStatic": 5678,
      "essions": 5679,
      "ĠVict": 5680,
      "ifies": 5681,
      "Ġthoughts": 5682,
      "Ġproper": 5683,
      "astics": 5684,
      "ĠEnh": 5685,
      "Ġconst": 5686,
      "ĠSpect": 5687,
      "Ġleave": 5688,
      "ĠAlmost": 5689,
      "ĠPlugin": 5690,
      "Ġcompetition": 5691,
      "erving": 5692,
      "Ġeffects": 5693,
      "Ġefficient": 5694,
      "ĠDoct": 5695,
      "Ġspread": 5696,
      "ĠMicroservices": 5697,
      "ĠContract": 5698,
      "onder": 5699,
      "flation": 5700,
      "ĠPrevent": 5701,
      "Ġdesigned": 5702,
      "ĠDisplay": 5703,
      "ĠPlayer": 5704,
      "ĠProtection": 5705,
      "ĠIPhone": 5706,
      "Ġprep": 5707,
      "ĠGPS": 5708,
      "ĠFunctions": 5709,
      "Ġminimal": 5710,
      "Ġblocks": 5711,
      "ĠSignal": 5712,
      "ĠDidn": 5713,
      "ĠAuthentication": 5714,
      "Ġcosts": 5715,
      "Ġgrowing": 5716,
      "Ġeconomic": 5717,
      "Ġcapital": 5718,
      "Ġfilm": 5719,
      "Ġterminal": 5720,
      "ĠTerminal": 5721,
      "Ġmissing": 5722,
      "izza": 5723,
      "oosing": 5724,
      "pinion": 5725,
      "pensive": 5726,
      "ĠPhilosophy": 5727,
      "90": 5728,
      "Ad": 5729,
      "As": 5730,
      "Berry": 5731,
      "PE": 5732,
      "body": 5733,
      "lier": 5734,
      "makers": 5735,
      "rant": 5736,
      "uction": 5737,
      "with": 5738,
      "ya": 5739,
      "orge": 5740,
      "ately": 5741,
      "ĠAC": 5742,
      "ĠAward": 5743,
      "ĠCopy": 5744,
      "alu": 5745,
      "alse": 5746,
      "ĠHab": 5747,
      "ĠHaw": 5748,
      "rees": 5749,
      "Ġaff": 5750,
      "ĠMistakes": 5751,
      "ĠWes": 5752,
      "ĠBang": 5753,
      "ĠBuys": 5754,
      "Ġwins": 5755,
      "isation": 5756,
      "ĠFlying": 5757,
      "ĠRout": 5758,
      "Ġben": 5759,
      "ĠGam": 5760,
      "ĠLif": 5761,
      "ĠLooks": 5762,
      "Ġmot": 5763,
      "ĠOC": 5764,
      "Ġhouse": 5765,
      "Ġgas": 5766,
      "artment": 5767,
      "ĠVery": 5768,
      "ĠJet": 5769,
      "ĠJune": 5770,
      "Ġthird": 5771,
      "Ġthese": 5772,
      "obby": 5773,
      "platform": 5774,
      "ibly": 5775,
      "ĠExist": 5776,
      "ĠClose": 5777,
      "ĠUnit": 5778,
      "ordable": 5779,
      "Ġchief": 5780,
      "ĠPlace": 5781,
      "ĠPrize": 5782,
      "Ġtrust": 5783,
      "ĠAdmin": 5784,
      "ools": 5785,
      "ĠDeveloping": 5786,
      "ĠPhones": 5787,
      "Ġalgorithms": 5788,
      "ĠAmazing": 5789,
      "ificate": 5790,
      "ĠOffers": 5791,
      "ĠPrem": 5792,
      "Ġhacking": 5793,
      "Ġpercent": 5794,
      "ĠCarbon": 5795,
      "ĠPayPal": 5796,
      "Ġbrand": 5797,
      "Ġinsurance": 5798,
      "Ġgenerate": 5799,
      "Ġdiscovered": 5800,
      "Ġinvestors": 5801,
      "ĠGraphics": 5802,
      "ĠUpdates": 5803,
      "Ġcryptocurrency": 5804,
      "ĠMessenger": 5805,
      "Ø§Ø±": 5806,
      "Ġlessons": 5807,
      "space": 5808,
      "Ġrequire": 5809,
      "ĠStatus": 5810,
      "ĠPractical": 5811,
      "ĠAcquires": 5812,
      "Ġcapt": 5813,
      "ĠRequest": 5814,
      "ĠSpecial": 5815,
      "ĠDetection": 5816,
      "ĠTablet": 5817,
      "ĠJuly": 5818,
      "ĠHosting": 5819,
      "ĠHello": 5820,
      "GB": 5821,
      "II": 5822,
      "bage": 5823,
      "field": 5824,
      "iency": 5825,
      "nown": 5826,
      "web": 5827,
      "Ġult": 5828,
      "Ġesc": 5829,
      "instein": 5830,
      "ĠSA": 5831,
      "enz": 5832,
      "eness": 5833,
      "ĠTot": 5834,
      "ĠCand": 5835,
      "ĠCop": 5836,
      "ĠCoc": 5837,
      "ĠCisco": 5838,
      "ĠHyp": 5839,
      "ĠHeat": 5840,
      "ĠPerm": 5841,
      "Ġaud": 5842,
      "rote": 5843,
      "ĠWhe": 5844,
      "ĠDangerous": 5845,
      "Ġsix": 5846,
      "Ġsince": 5847,
      "Ġcopyright": 5848,
      "Ġbirth": 5849,
      "Ġbanned": 5850,
      "ĠGall": 5851,
      "Ġdat": 5852,
      "Ġdaily": 5853,
      "ĠLed": 5854,
      "ĠEric": 5855,
      "Ġmain": 5856,
      "Ġmilitary": 5857,
      "idents": 5858,
      "igure": 5859,
      "ima": 5860,
      "âĢĻ:": 5861,
      "Ġreasons": 5862,
      "ava": 5863,
      "ums": 5864,
      "ĠProp": 5865,
      "ĠExc": 5866,
      "ĠScheme": 5867,
      "Ġconference": 5868,
      "Ġleak": 5869,
      "Ġleaders": 5870,
      "ĠAlways": 5871,
      "ternal": 5872,
      "Ġcomplex": 5873,
      "Ġeff": 5874,
      "Ġtrial": 5875,
      "rosc": 5876,
      "Ġkernel": 5877,
      "undred": 5878,
      "Ġclose": 5879,
      "ĠNote": 5880,
      "ĠNothing": 5881,
      "ĠEmp": 5882,
      "Ġcontribut": 5883,
      "Ġalways": 5884,
      "ĠMega": 5885,
      "Ġopens": 5886,
      "ĠMonkey": 5887,
      "ĠExploit": 5888,
      "ĠManagers": 5889,
      "ĠMinutes": 5890,
      "ĠHelps": 5891,
      "Ġdecision": 5892,
      "olec": 5893,
      "Ġstudent": 5894,
      "ĠVisualizing": 5895,
      "Ġamong": 5896,
      "ĠBlackBerry": 5897,
      "ognitive": 5898,
      "ĠLabor": 5899,
      "Ġchanging": 5900,
      "Ġinfrastructure": 5901,
      "ĠMessages": 5902,
      "ĠHTTPS": 5903,
      "legal": 5904,
      "Ġencrypted": 5905,
      "ĠHollywood": 5906,
      "ĠCanadian": 5907,
      "ĠStandard": 5908,
      "Ġprogrammers": 5909,
      "Ġfailure": 5910,
      "ĠHadoop": 5911,
      "ependent": 5912,
      "Ġlawsuit": 5913,
      "ĠSnapchat": 5914,
      "ĠAlexa": 5915,
      "ifesto": 5916,
      "ĠSteph": 5917,
      "CoV": 5918,
      "rehensive": 5919,
      "Cr": 5920,
      "MA": 5921,
      "Me": 5922,
      "Mobile": 5923,
      "Red": 5924,
      "RTC": 5925,
      "TF": 5926,
      "eor": 5927,
      "hones": 5928,
      "ki": 5929,
      "kins": 5930,
      "scrib": 5931,
      "ints": 5932,
      "ĠTem": 5933,
      "ĠCR": 5934,
      "ĠCry": 5935,
      "ĠCalls": 5936,
      "Ġfed": 5937,
      "Ġfraud": 5938,
      "Ġfully": 5939,
      "Ġawesome": 5940,
      "ĠMiddle": 5941,
      "rog": 5942,
      "icine": 5943,
      "icide": 5944,
      "ĠWins": 5945,
      "ĠWolf": 5946,
      "ĠDuring": 5947,
      "ĠDashboard": 5948,
      "Ġserious": 5949,
      "Ġcrowd": 5950,
      "ĠBurn": 5951,
      "ĠRansomware": 5952,
      "Ġinflu": 5953,
      "Ġbans": 5954,
      "Ġpick": 5955,
      "Ġpython": 5956,
      "Ġdream": 5957,
      "ĠLat": 5958,
      "ĠLou": 5959,
      "ĠLake": 5960,
      "Ġmis": 5961,
      "Ġmillions": 5962,
      "iders": 5963,
      "ĠOpport": 5964,
      "ivation": 5965,
      "urb": 5966,
      "ĠStation": 5967,
      "Ġhold": 5968,
      "irds": 5969,
      "Ġwithin": 5970,
      "ĠVir": 5971,
      "illing": 5972,
      "Ġthose": 5973,
      "Ġvol": 5974,
      "ĠChoose": 5975,
      "apy": 5976,
      "apes": 5977,
      "ĠKing": 5978,
      "ĠKaf": 5979,
      "Ġanything": 5980,
      "ĠThird": 5981,
      "Ġprogress": 5982,
      "Ġprobably": 5983,
      "Ġrace": 5984,
      "eeper": 5985,
      "ĠUnd": 5986,
      "Ġshares": 5987,
      "Ġexpect": 5988,
      "Ġelection": 5989,
      "Ġtrade": 5990,
      "Ġplant": 5991,
      "iants": 5992,
      "ĠToy": 5993,
      "awei": 5994,
      "riter": 5995,
      "Ġsuck": 5996,
      "Ġalso": 5997,
      "ĠMeasure": 5998,
      "Ġquestion": 5999,
      "ĠFreeBSD": 6000,
      "ucket": 6001,
      "ĠObjects": 6002,
      "ĠAnalyz": 6003,
      "Ġrevenue": 6004,
      "ĠConsum": 6005,
      "ĠSolutions": 6006,
      "irty": 6007,
      "Ġstarts": 6008,
      "Ġstrong": 6009,
      "Ġaccept": 6010,
      "ĠDebate": 6011,
      "ĠInvesting": 6012,
      "Ġpayment": 6013,
      "ĠProfit": 6014,
      "oji": 6015,
      "ĠLonger": 6016,
      "Ġinstall": 6017,
      "ĠDistribution": 6018,
      "Ġresearchers": 6019,
      "ĠRepair": 6020,
      "Ġupdates": 6021,
      "Ġtraining": 6022,
      "Ġdetection": 6023,
      "ĠOrigin": 6024,
      "Ġstatus": 6025,
      "Ġpractices": 6026,
      "Ġknown": 6027,
      "Ġbasic": 6028,
      "chronous": 6029,
      "DoS": 6030,
      "ĠVaccine": 6031,
      "equality": 6032,
      "Ġversus": 6033,
      "otyping": 6034,
      "ĠTaiwan": 6035,
      "ĠKafka": 6036,
      "26": 6037,
      "48": 6038,
      "LE": 6039,
      "bor": 6040,
      "cons": 6041,
      "fr": 6042,
      "fol": 6043,
      "pret": 6044,
      "point": 6045,
      "uits": 6046,
      "ze": 6047,
      "information": 6048,
      "ĠSeed": 6049,
      "ĠSong": 6050,
      "ĠSSD": 6051,
      "itr": 6052,
      "itory": 6053,
      "ĠCards": 6054,
      "ĠCirc": 6055,
      "alo": 6056,
      "Ġfour": 6057,
      "Ġahead": 6058,
      "ĠIN": 6059,
      "ĠDouble": 6060,
      "ĠDrones": 6061,
      "ĠBing": 6062,
      "ĠBoe": 6063,
      "Ġwild": 6064,
      "ĠFeel": 6065,
      "ĠFDA": 6066,
      "ette": 6067,
      "ĠGD": 6068,
      "Ġdiff": 6069,
      "ĠLo": 6070,
      "ĠLater": 6071,
      "ĠLaunched": 6072,
      "ashed": 6073,
      "ĠNor": 6074,
      "otely": 6075,
      "adow": 6076,
      "eway": 6077,
      "ĠSteal": 6078,
      "Ġhate": 6079,
      "ulations": 6080,
      "Ġrece": 6081,
      "Ġstar": 6082,
      "Ġstuff": 6083,
      "Ġissue": 6084,
      "ĠAnswer": 6085,
      "ĠProxy": 6086,
      "ĠChart": 6087,
      "Ġann": 6088,
      "ĠThread": 6089,
      "ublished": 6090,
      "ober": 6091,
      "ĠScan": 6092,
      "ĠSpr": 6093,
      "ĠUnion": 6094,
      "ĠUnity": 6095,
      "ĠBehavior": 6096,
      "Ġchoose": 6097,
      "Ġ27": 6098,
      "ealand": 6099,
      "Ġscam": 6100,
      "ĠZealand": 6101,
      "ĠLeaked": 6102,
      "Ġunlock": 6103,
      "leted": 6104,
      "Ġoffline": 6105,
      "ĠGrand": 6106,
      "ĠChem": 6107,
      "ĠSea": 6108,
      "ĠSept": 6109,
      "Ġdriving": 6110,
      "Ġdriver": 6111,
      "Ġdesigner": 6112,
      "ĠAcross": 6113,
      "Ġcomment": 6114,
      "untime": 6115,
      "ĠSolve": 6116,
      "Ġraise": 6117,
      "ĠSoon": 6118,
      "Ġparty": 6119,
      "Ġpowered": 6120,
      "rolls": 6121,
      "ĠMultiple": 6122,
      "ĠLogo": 6123,
      "ulnerable": 6124,
      "ĠMessage": 6125,
      "netic": 6126,
      "Ġreportedly": 6127,
      "ĠHappens": 6128,
      "Ġrequest": 6129,
      "Ġmessage": 6130,
      "Ġscientific": 6131,
      "ĠStatistics": 6132,
      "ĠCosts": 6133,
      "Ġcalled": 6134,
      "ĠCodes": 6135,
      "Ġsimpl": 6136,
      "ĠEquity": 6137,
      "ĠDetails": 6138,
      "ĠImplementing": 6139,
      "Ġradio": 6140,
      "ĠIdentity": 6141,
      "Ġbreach": 6142,
      "ĠPolitical": 6143,
      "option": 6144,
      "ĠTowards": 6145,
      "ĠMartin": 6146,
      "limited": 6147,
      "ĠHuawei": 6148,
      "Auth": 6149,
      "FO": 6150,
      "HE": 6151,
      "Ms": 6152,
      "OP": 6153,
      "Off": 6154,
      "can": 6155,
      "eign": 6156,
      "fs": 6157,
      "known": 6158,
      "med": 6159,
      "pace": 6160,
      "pass": 6161,
      "yer": 6162,
      "Ġâ": 6163,
      "Ġtells": 6164,
      "itution": 6165,
      "ĠTrying": 6166,
      "ĠCos": 6167,
      "ĠCreation": 6168,
      "stack": 6169,
      "ĠHed": 6170,
      "ĠHousing": 6171,
      "lements": 6172,
      "Ġfit": 6173,
      "ĠPoor": 6174,
      "ĠMa": 6175,
      "ĠMex": 6176,
      "ĠMain": 6177,
      "ĠWid": 6178,
      "ĠDisease": 6179,
      "Ġsoc": 6180,
      "Ġseries": 6181,
      "ĠBird": 6182,
      "Ġwish": 6183,
      "ĠFeb": 6184,
      "ĠFarm": 6185,
      "ĠRum": 6186,
      "Ġbuys": 6187,
      "Ġpur": 6188,
      "ĠGas": 6189,
      "Ġdied": 6190,
      "ĠNan": 6191,
      "ĠOcean": 6192,
      "ivid": 6193,
      "olving": 6194,
      "Ġreduce": 6195,
      "ĠVent": 6196,
      "ĠJup": 6197,
      "ifts": 6198,
      "ipse": 6199,
      "Ġthen": 6200,
      "ĠChic": 6201,
      "ĠChess": 6202,
      "apons": 6203,
      "ĠKen": 6204,
      "ĠThanks": 6205,
      "plant": 6206,
      "izens": 6207,
      "Ġwhite": 6208,
      "Ġexec": 6209,
      "ĠPrime": 6210,
      "ugins": 6211,
      "Ġtricks": 6212,
      "Ġnote": 6213,
      "ĠImag": 6214,
      "ĠManage": 6215,
      "ĠiPhones": 6216,
      "ĠHacks": 6217,
      "aterials": 6218,
      "ĠOverview": 6219,
      "ĠInsurance": 6220,
      "Ġacceler": 6221,
      "Ġlaunching": 6222,
      "ĠPayments": 6223,
      "Ġtransform": 6224,
      "Ġindex": 6225,
      "elligent": 6226,
      "ourses": 6227,
      "Ġprotest": 6228,
      "ĠSubm": 6229,
      "Ġruns": 6230,
      "pressions": 6231,
      "Ġdefault": 6232,
      "ĠBanks": 6233,
      "roke": 6234,
      "Ġ2008": 6235,
      "ĠBuying": 6236,
      "Ġautomatically": 6237,
      "ĠAttention": 6238,
      "ustrial": 6239,
      "Ġkilling": 6240,
      "ĠEmployee": 6241,
      "ĠUltra": 6242,
      "ĠPackage": 6243,
      "Ġsupports": 6244,
      "ĠLimits": 6245,
      "Ġsurvey": 6246,
      "ĠCounter": 6247,
      "Ġmathem": 6248,
      "ustainable": 6249,
      "iplayer": 6250,
      "ĠHarvard": 6251,
      "ĠBoeing": 6252,
      "':": 6253,
      "):": 6254,
      "32": 6255,
      "HA": 6256,
      "IA": 6257,
      "OC": 6258,
      "Python": 6259,
      "TV": 6260,
      "Tw": 6261,
      "ae": 6262,
      "gu": 6263,
      "gener": 6264,
      "iod": 6265,
      "iated": 6266,
      "lights": 6267,
      "oating": 6268,
      "rier": 6269,
      "win": 6270,
      "Ġ*": 6271,
      "Ġice": 6272,
      "Ġends": 6273,
      "aron": 6274,
      "ĠCN": 6275,
      "ĠCelebr": 6276,
      "oust": 6277,
      "ĠHour": 6278,
      "Ġfuel": 6279,
      "ĠPand": 6280,
      "ĠPak": 6281,
      "ĠMerc": 6282,
      "ĠWords": 6283,
      "ĠBash": 6284,
      "ĠBuzz": 6285,
      "ĠBomb": 6286,
      "Ġworst": 6287,
      "ĠFat": 6288,
      "ĠFold": 6289,
      "ĠFraud": 6290,
      "ĠGun": 6291,
      "ĠGhost": 6292,
      "Ġdate": 6293,
      "Ġdraw": 6294,
      "ĠLED": 6295,
      "ĠEye": 6296,
      "Ġmechan": 6297,
      "ĠNames": 6298,
      "ooter": 6299,
      "ersey": 6300,
      "olve": 6301,
      "Ġnational": 6302,
      "ĠStuff": 6303,
      "essor": 6304,
      "2000": 6305,
      "Ġreplace": 6306,
      "ĠViol": 6307,
      "ĠReplace": 6308,
      "ĠKot": 6309,
      "Ġanswer": 6310,
      "Ġrout": 6311,
      "ellites": 6312,
      "actions": 6313,
      "Ġbehavior": 6314,
      "ĠComparing": 6315,
      "Ġshopping": 6316,
      "Ġ300": 6317,
      "ĠWebRTC": 6318,
      "ĠPrison": 6319,
      "ĠPricing": 6320,
      "Ġkilled": 6321,
      "encing": 6322,
      "ĠTok": 6323,
      "ĠContainer": 6324,
      "Ġblood": 6325,
      "ĠDragon": 6326,
      "ĠInteresting": 6327,
      "ruit": 6328,
      "ynchronous": 6329,
      "Ġrole": 6330,
      "ĠGuid": 6331,
      "amps": 6332,
      "ĠEvidence": 6333,
      "Ġ99": 6334,
      "Ġevents": 6335,
      "Ġdecl": 6336,
      "ĠIPv": 6337,
      "ĠPatents": 6338,
      "Ġnetworking": 6339,
      "Ġconsum": 6340,
      "Ġconsumer": 6341,
      "Ġrap": 6342,
      "ĠEcosystem": 6343,
      "ĠCorporate": 6344,
      "Ġpartners": 6345,
      "ĠAssoc": 6346,
      "Ġprototype": 6347,
      "Ġplanet": 6348,
      "Ġinvestig": 6349,
      "Ġinvestment": 6350,
      "ĠMetrics": 6351,
      "ĠPlatforms": 6352,
      "auty": 6353,
      "Ġweeks": 6354,
      "ĠSomeone": 6355,
      "Ġfunctional": 6356,
      "Ġserverless": 6357,
      "ĠSigns": 6358,
      "Ġsigns": 6359,
      "Ġprocessing": 6360,
      "Ġemployee": 6361,
      "Ġscientist": 6362,
      "vironments": 6363,
      "ĠChallenges": 6364,
      "ĠBasics": 6365,
      "Ġprograms": 6366,
      "Ġlightweight": 6367,
      "One": 6368,
      "ĠMassive": 6369,
      "ĠPerspective": 6370,
      "ĠConversation": 6371,
      "Ġrevealed": 6372,
      "ĠMystery": 6373,
      "ĠMysterious": 6374,
      "interest": 6375,
      "ĠPutin": 6376,
      "ĠBaby": 6377,
      "ĠNobel": 6378,
      "ĠEasily": 6379,
      "ĠTensorFlow": 6380,
      "ĠMillenn": 6381,
      "Ġoutside": 6382,
      "65": 6383,
      "Am": 6384,
      "FC": 6385,
      "HS": 6386,
      "Power": 6387,
      "aiting": 6388,
      "audio": 6389,
      "bre": 6390,
      "drome": 6391,
      "fri": 6392,
      "hi": 6393,
      "joy": 6394,
      "pad": 6395,
      "ris": 6396,
      "à¸": 6397,
      "ĠÐ": 6398,
      "erts": 6399,
      "Ġtel": 6400,
      "ĠServers": 6401,
      "ĠSince": 6402,
      "ĠSomething": 6403,
      "ĠSusp": 6404,
      "enes": 6405,
      "itation": 6406,
      "ĠTab": 6407,
      "ĠTail": 6408,
      "ĠCold": 6409,
      "ĠCoup": 6410,
      "ĠCMS": 6411,
      "ĠCivil": 6412,
      "ĠCrowds": 6413,
      "stract": 6414,
      "Ġfoot": 6415,
      "ĠMix": 6416,
      "ĠMission": 6417,
      "room": 6418,
      "ĠDog": 6419,
      "ĠDeals": 6420,
      "ĠDollar": 6421,
      "ĠDDoS": 6422,
      "Ġsup": 6423,
      "Ġcells": 6424,
      "Ġcameras": 6425,
      "ĠBand": 6426,
      "ĠBus": 6427,
      "Ġwid": 6428,
      "Ġworse": 6429,
      "ĠFear": 6430,
      "ĠFish": 6431,
      "andal": 6432,
      "Ġpo": 6433,
      "Ġpars": 6434,
      "Ġpitch": 6435,
      "Ġplease": 6436,
      "ĠLiter": 6437,
      "Ġmail": 6438,
      "Ġmission": 6439,
      "ĠOm": 6440,
      "ĠOp": 6441,
      "igger": 6442,
      "aditional": 6443,
      "ĠStructure": 6444,
      "Ġhash": 6445,
      "cepts": 6446,
      "Ġgreen": 6447,
      "Ġreason": 6448,
      "Ġreports": 6449,
      "ĠYes": 6450,
      "Ġstructure": 6451,
      "ĠJudge": 6452,
      "avel": 6453,
      "aping": 6454,
      "antage": 6455,
      "ption": 6456,
      "ĠClaims": 6457,
      "Ġexc": 6458,
      "Ġleads": 6459,
      "ĠBeat": 6460,
      "Ġcharge": 6461,
      "Ġ35": 6462,
      "enses": 6463,
      "ugar": 6464,
      "ĠFacial": 6465,
      "ĠDoom": 6466,
      "ĠTweet": 6467,
      "Ġspam": 6468,
      "Ġprison": 6469,
      "Ġnothing": 6470,
      "ĠForget": 6471,
      "Ġadmin": 6472,
      "Ġadvertising": 6473,
      "ollo": 6474,
      "ĠFlu": 6475,
      "Ġoutage": 6476,
      "ĠDriving": 6477,
      "ĠDesigner": 6478,
      "ĠRedux": 6479,
      "ĠGrid": 6480,
      "Ġmeans": 6481,
      "ĠStrong": 6482,
      "Ġdrives": 6483,
      "ĠSurprising": 6484,
      "riers": 6485,
      "Ġcrack": 6486,
      "Ġhelping": 6487,
      "Ġbrings": 6488,
      "Ġdevs": 6489,
      "ĠAutomatically": 6490,
      "Ġtweets": 6491,
      "Ġexplain": 6492,
      "ĠDefin": 6493,
      "Ġpatterns": 6494,
      "ĠProfile": 6495,
      "ĠBookmark": 6496,
      "raping": 6497,
      "ĠCentury": 6498,
      "ĠGenius": 6499,
      "Ġadvanced": 6500,
      "ĠBreach": 6501,
      "ĠGeorge": 6502,
      "Ġrequests": 6503,
      "Ġbuying": 6504,
      "Ġdebt": 6505,
      "ĠTurns": 6506,
      "ĠKeeping": 6507,
      "ĠDepend": 6508,
      "ĠCritical": 6509,
      "ĠSVG": 6510,
      "ĠBerlin": 6511,
      "Ġpolitical": 6512,
      "ĠSociety": 6513,
      "ĠLyft": 6514,
      "ĠPentagon": 6515,
      "folio": 6516,
      "ĠChicago": 6517,
      "Comp": 6518,
      "List": 6519,
      "Like": 6520,
      "MC": 6521,
      "RI": 6522,
      "TT": 6523,
      "iance": 6524,
      "life": 6525,
      "lied": 6526,
      "py": 6527,
      "ression": 6528,
      "Ġil": 6529,
      "Ġeth": 6530,
      "onts": 6531,
      "Ġtem": 6532,
      "orch": 6533,
      "ĠSold": 6534,
      "ĠSyr": 6535,
      "ĠAk": 6536,
      "arant": 6537,
      "itial": 6538,
      "ĠCart": 6539,
      "ĠCable": 6540,
      "ĠHub": 6541,
      "reg": 6542,
      "lets": 6543,
      "Ġaims": 6544,
      "ĠWarning": 6545,
      "ĠWealth": 6546,
      "ĠDate": 6547,
      "ĠDuck": 6548,
      "Ġsem": 6549,
      "Ġcause": 6550,
      "Ġwhe": 6551,
      "ander": 6552,
      "Ġbur": 6553,
      "Ġboss": 6554,
      "Ġpull": 6555,
      "ĠGov": 6556,
      "ĠLot": 6557,
      "ĠLect": 6558,
      "ĠLocation": 6559,
      "ĠEinstein": 6560,
      "iminal": 6561,
      "ademic": 6562,
      "Ġlo": 6563,
      "Ġloc": 6564,
      "Ġlives": 6565,
      "Ġnearly": 6566,
      "Ġharm": 6567,
      "Ġhole": 6568,
      "Ġhaving": 6569,
      "emy": 6570,
      "emon": 6571,
      "ocurrencies": 6572,
      "aver": 6573,
      "istent": 6574,
      "ositive": 6575,
      "ĠRepos": 6576,
      "ĠThen": 6577,
      "Ġround": 6578,
      "quare": 6579,
      "gry": 6580,
      "arks": 6581,
      "ĠTricks": 6582,
      "ĠClock": 6583,
      "ĠAlan": 6584,
      "away": 6585,
      "ĠFriday": 6586,
      "riters": 6587,
      "ĠLeave": 6588,
      "Ġcontact": 6589,
      "ificant": 6590,
      "ĠAutonomous": 6591,
      "letely": 6592,
      "Ġquit": 6593,
      "ĠPercent": 6594,
      "2003": 6595,
      "ertain": 6596,
      "Ġaccur": 6597,
      "Ġauto": 6598,
      "ĠDecision": 6599,
      "ĠTransport": 6600,
      "ĠPlaying": 6601,
      "etailed": 6602,
      "ĠSolving": 6603,
      "Ġdisplay": 6604,
      "tlement": 6605,
      "ĠExperts": 6606,
      "ĠAutomatic": 6607,
      "Ġcreator": 6608,
      "ĠMarkets": 6609,
      "ĠApollo": 6610,
      "Ġcarbon": 6611,
      "ĠArchive": 6612,
      "ĠEconomics": 6613,
      "bitr": 6614,
      "ruptcy": 6615,
      "Ġoption": 6616,
      "Ġfastest": 6617,
      "Ġdemand": 6618,
      "culus": 6619,
      "Ġturned": 6620,
      "Ġautomated": 6621,
      "ĠPrograms": 6622,
      "ammer": 6623,
      "ĠResponsive": 6624,
      "ĠEpic": 6625,
      "Ġacquisition": 6626,
      "ĠPhysic": 6627,
      "ĠAngularJS": 6628,
      "ĠCountry": 6629,
      "ĠFriend": 6630,
      "ĠEstate": 6631,
      "ĠOriginal": 6632,
      "ĠSenate": 6633,
      "ĠIncrease": 6634,
      "ĠSemantic": 6635,
      "ĠAugust": 6636,
      "ĠElectronic": 6637,
      "ĠUrban": 6638,
      "ĠJanuary": 6639,
      "ĠIsrael": 6640,
      "ĠLicense": 6641,
      "ĠDutch": 6642,
      "Ġdynamic": 6643,
      "ĠWestern": 6644,
      "ĠPakistan": 6645,
      "--": 6646,
      "Box": 6647,
      "You": 6648,
      "bone": 6649,
      "cceed": 6650,
      "geb": 6651,
      "gree": 6652,
      "lor": 6653,
      "pm": 6654,
      "rd": 6655,
      "wind": 6656,
      "world": 6657,
      "ĠAN": 6658,
      "ĠAP": 6659,
      "ĠTown": 6660,
      "heimer": 6661,
      "ĠCub": 6662,
      "Ġfear": 6663,
      "Ġfly": 6664,
      "ĠPG": 6665,
      "ĠMid": 6666,
      "ĠMob": 6667,
      "icip": 6668,
      "ĠWear": 6669,
      "ĠDomin": 6670,
      "Ġsets": 6671,
      "Ġcook": 6672,
      "Ġcable": 6673,
      "ĠBugs": 6674,
      "Ġwoman": 6675,
      "ĠFant": 6676,
      "ĠFusion": 6677,
      "Ġbal": 6678,
      "ĠGift": 6679,
      "ilio": 6680,
      "ĠLad": 6681,
      "ĠLose": 6682,
      "Ġmaint": 6683,
      "ership": 6684,
      "Ġlose": 6685,
      "Ġneg": 6686,
      "Ġgold": 6687,
      "Ġguy": 6688,
      "artz": 6689,
      "acker": 6690,
      "Ġrecr": 6691,
      "ĠShopping": 6692,
      "ĠAsia": 6693,
      "umn": 6694,
      "Ġventure": 6695,
      "ĠChief": 6696,
      "ĠKDE": 6697,
      "uby": 6698,
      "ogether": 6699,
      "Ġrank": 6700,
      "ĠCond": 6701,
      "ĠSpeak": 6702,
      "ĠUnveils": 6703,
      "ĠAlt": 6704,
      "ĠiT": 6705,
      "ensing": 6706,
      "Ġclaim": 6707,
      "Ġpricing": 6708,
      "ĠWeather": 6709,
      "ĠFresh": 6710,
      "OSS": 6711,
      "ĠEmails": 6712,
      "Ġunit": 6713,
      "Ġsecrets": 6714,
      "ĠGround": 6715,
      "ĠAirlines": 6716,
      "ĠComcast": 6717,
      "2005": 6718,
      "ĠPrec": 6719,
      "ĠTechnologies": 6720,
      "cling": 6721,
      "ĠSelect": 6722,
      "ĠMinecraft": 6723,
      "ĠPowered": 6724,
      "ĠFinance": 6725,
      "annels": 6726,
      "ĠActive": 6727,
      "Ġinspired": 6728,
      "Ġmining": 6729,
      "Ġdiscover": 6730,
      "ĠPlanning": 6731,
      "ĠAssistant": 6732,
      "ĠMetal": 6733,
      "ĠLegacy": 6734,
      "ĠÙĪ": 6735,
      "Ġretail": 6736,
      "Ġmessaging": 6737,
      "Ġtele": 6738,
      "Ġrespons": 6739,
      "ĠEpisode": 6740,
      "ĠDirectory": 6741,
      "ĠScript": 6742,
      "ĠScratch": 6743,
      "Ġpresident": 6744,
      "ĠTelegram": 6745,
      "ĠBreakthrough": 6746,
      "ĠMonths": 6747,
      "ĠURLs": 6748,
      "Ġintroduces": 6749,
      "ĠBringing": 6750,
      "ĠPolitics": 6751,
      "Ġmassive": 6752,
      "preter": 6753,
      "Ġphysics": 6754,
      "ĠSaud": 6755,
      "drogen": 6756,
      "ĠGNU": 6757,
      "HO": 6758,
      "Lab": 6759,
      "MP": 6760,
      "mer": 6761,
      "nam": 6762,
      "vels": 6763,
      "vious": 6764,
      "water": 6765,
      "zheimer": 6766,
      "Ġ~": 6767,
      "Ġund": 6768,
      "onst": 6769,
      "onstr": 6770,
      "Ġtask": 6771,
      "anel": 6772,
      "ĠSC": 6773,
      "itude": 6774,
      "station": 6775,
      "ĠHey": 6776,
      "ĠPorn": 6777,
      "ĠMental": 6778,
      "icated": 6779,
      "icism": 6780,
      "Ġtok": 6781,
      "Ġcold": 6782,
      "Ġcards": 6783,
      "ĠBob": 6784,
      "ĠFirms": 6785,
      "Ġbul": 6786,
      "Ġpoll": 6787,
      "Ġpoor": 6788,
      "ĠGig": 6789,
      "ĠGap": 6790,
      "ĠGiving": 6791,
      "ĠGiant": 6792,
      "ĠLA": 6793,
      "Ġmaker": 6794,
      "Ġmoon": 6795,
      "asa": 6796,
      "chiev": 6797,
      "Ġlot": 6798,
      "Ġgives": 6799,
      "Ġgiving": 6800,
      "uly": 6801,
      "Ġreach": 6802,
      "ĠShip": 6803,
      "Ġstores": 6804,
      "abric": 6805,
      "ĠReports": 6806,
      "Ġvict": 6807,
      "Ġvote": 6808,
      "ĠChoice": 6809,
      "ĠChoosing": 6810,
      "Ġrates": 6811,
      "ĠConcept": 6812,
      "anta": 6813,
      "acters": 6814,
      "ĠExamples": 6815,
      "ĠExample": 6816,
      "Ġshutting": 6817,
      "Ġleaves": 6818,
      "Ġchild": 6819,
      "ĠAlready": 6820,
      "ĠeBay": 6821,
      "ĠFacts": 6822,
      "ĠArdu": 6823,
      "ebooks": 6824,
      "Ġjourney": 6825,
      "Ġclick": 6826,
      "jected": 6827,
      "ĠWeird": 6828,
      "Ġheart": 6829,
      "ĠManifesto": 6830,
      "ollars": 6831,
      "ĠLeague": 6832,
      "ĠFlat": 6833,
      "Ġdeveloping": 6834,
      "letes": 6835,
      "oking": 6836,
      "Ġinteresting": 6837,
      "inton": 6838,
      "ĠComments": 6839,
      "ĠMarketplace": 6840,
      "Ġdrivers": 6841,
      "ĠPosts": 6842,
      "ĠDecl": 6843,
      "Ġevidence": 6844,
      "ĠHigher": 6845,
      "ĠConscious": 6846,
      "ĠCreator": 6847,
      "ĠPattern": 6848,
      "ĠGoodbye": 6849,
      "fficiency": 6850,
      "ĠCybersecurity": 6851,
      "ĠKeys": 6852,
      "ĠFastest": 6853,
      "screen": 6854,
      "Ġincome": 6855,
      "Ġcorporate": 6856,
      "Ġkeys": 6857,
      "Ġactiv": 6858,
      "iveness": 6859,
      "ĠMeeting": 6860,
      "ĠCentral": 6861,
      "Ġ2009": 6862,
      "ĠMessaging": 6863,
      "ĠPortable": 6864,
      "Ġobjects": 6865,
      "ĠButton": 6866,
      "ĠSchools": 6867,
      "Ġdebate": 6868,
      "Ġinterviews": 6869,
      "Ġtracker": 6870,
      "ĠJulia": 6871,
      "ĠNavy": 6872,
      "Ġconcerns": 6873,
      "ĠSOPA": 6874,
      "elancer": 6875,
      "ĠParadox": 6876,
      "ĠSiri": 6877,
      "ĠMotorola": 6878,
      "ĠWedding": 6879,
      "osphere": 6880,
      "istlebl": 6881,
      "oenix": 6882,
      "'d": 6883,
      "24": 6884,
      "HD": 6885,
      "How": 6886,
      "Mind": 6887,
      "SL": 6888,
      "We": 6889,
      "bat": 6890,
      "books": 6891,
      "just": 6892,
      "lr": 6893,
      "och": 6894,
      "sec": 6895,
      "talk": 6896,
      "wall": 6897,
      "atomy": 6898,
      "ĠSov": 6899,
      "ĠSeven": 6900,
      "ĠTCP": 6901,
      "ĠCup": 6902,
      "ĠCult": 6903,
      "ĠHttp": 6904,
      "level": 6905,
      "Ġfarm": 6906,
      "Ġfamily": 6907,
      "ĠPu": 6908,
      "ĠPac": 6909,
      "ĠPot": 6910,
      "ĠPure": 6911,
      "ĠPictures": 6912,
      "ĠPizza": 6913,
      "ĠPinterest": 6914,
      "ĠMock": 6915,
      "roph": 6916,
      "ĠWarn": 6917,
      "ĠDB": 6918,
      "ĠDifference": 6919,
      "Ġsong": 6920,
      "Ġcases": 6921,
      "Ġcirc": 6922,
      "Ġcivil": 6923,
      "ĠBra": 6924,
      "ĠBern": 6925,
      "Ġwarning": 6926,
      "Ġwaste": 6927,
      "ĠFew": 6928,
      "ĠFavorite": 6929,
      "ĠFashion": 6930,
      "ĠRat": 6931,
      "ĠRom": 6932,
      "ĠRights": 6933,
      "andon": 6934,
      "Ġboom": 6935,
      "Ġbody": 6936,
      "ille": 6937,
      "ĠLives": 6938,
      "ĠLands": 6939,
      "ĠLanding": 6940,
      "ĠLibraries": 6941,
      "Ġmaps": 6942,
      "Ġmiddle": 6943,
      "ecess": 6944,
      "ĠInclud": 6945,
      "Ġlower": 6946,
      "Ġlosing": 6947,
      "ĠWhile": 6948,
      "eware": 6949,
      "ĠStick": 6950,
      "ĠStupid": 6951,
      "Ġgit": 6952,
      "Ġredu": 6953,
      "ĠAsync": 6954,
      "ĠJon": 6955,
      "romised": 6956,
      "apter": 6957,
      "Ġanswers": 6958,
      "ighter": 6959,
      "arding": 6960,
      "izen": 6961,
      "ellar": 6962,
      "ĠTrip": 6963,
      "ĠTrick": 6964,
      "ĠUnlock": 6965,
      "ilem": 6966,
      "ĠAlzheimer": 6967,
      "Ġeach": 6968,
      "Ġtrue": 6969,
      "Ġtrends": 6970,
      "Ġjudge": 6971,
      "ĠTwitch": 6972,
      "enced": 6973,
      "cription": 6974,
      "awn": 6975,
      "ĠForward": 6976,
      "Ġheat": 6977,
      "Ġ45": 6978,
      "epar": 6979,
      "Ġuntil": 6980,
      "ĠIndie": 6981,
      "ĠContainers": 6982,
      "Ġcontainer": 6983,
      "ĠDrivers": 6984,
      "ĠDriven": 6985,
      "ĠDesigners": 6986,
      "argo": 6987,
      "Ġitself": 6988,
      "Ġbuilds": 6989,
      "2002": 6990,
      "itories": 6991,
      "ĠNewsletter": 6992,
      "ymore": 6993,
      "Ġdesigners": 6994,
      "ĠSilver": 6995,
      "Ġfinding": 6996,
      "Ġreverse": 6997,
      "ĠSketch": 6998,
      "eroid": 6999,
      "Ġtransfer": 7000,
      "Ġgrid": 7001,
      "ĠNeutrality": 7002,
      "ĠActivity": 7003,
      "Ġbecame": 7004,
      "ĠHelped": 7005,
      "Ġcreative": 7006,
      "verse": 7007,
      "Ġpatients": 7008,
      "ĠModeling": 7009,
      "ginx": 7010,
      "Ġecosystem": 7011,
      "Ġdistribution": 7012,
      "ĠHandling": 7013,
      "ĠOptimizing": 7014,
      "ĠChanged": 7015,
      "ĠEngines": 7016,
      "ĠError": 7017,
      "ĠFedora": 7018,
      "Ġautomation": 7019,
      "ĠPractice": 7020,
      "ĠGraham": 7021,
      "Space": 7022,
      "Driven": 7023,
      "ĠBayes": 7024,
      "Ġoffering": 7025,
      "ĠFighting": 7026,
      "ĠEstim": 7027,
      "ĠEssay": 7028,
      "Ġmedical": 7029,
      "Ġcommunication": 7030,
      "Ġintegration": 7031,
      "ĠTreatment": 7032,
      "ĠMVP": 7033,
      "Ġmystery": 7034,
      "Ġrocket": 7035,
      "ĠStrategies": 7036,
      "Ġunderstand": 7037,
      "hedule": 7038,
      "asticsearch": 7039,
      "ividual": 7040,
      "ĠKotlin": 7041,
      ".âĢĿ": 7042,
      "Bank": 7043,
      "Day": 7044,
      "EN": 7045,
      "FA": 7046,
      "Linux": 7047,
      "View": 7048,
      "cue": 7049,
      "cape": 7050,
      "dev": 7051,
      "fit": 7052,
      "hots": 7053,
      "ml": 7054,
      "mod": 7055,
      "ren": 7056,
      "tons": 7057,
      "uce": 7058,
      "ateway": 7059,
      "ĠSud": 7060,
      "ĠSets": 7061,
      "ĠSPA": 7062,
      "ĠSerious": 7063,
      "ĠSIM": 7064,
      "engine": 7065,
      "ĠTeen": 7066,
      "ĠCow": 7067,
      "alog": 7068,
      "stra": 7069,
      "style": 7070,
      "ĠPin": 7071,
      "edy": 7072,
      "ĠDart": 7073,
      "ĠDiversity": 7074,
      "Ġsources": 7075,
      "Ġcit": 7076,
      "Ġcore": 7077,
      "ĠBinary": 7078,
      "owing": 7079,
      "ĠFut": 7080,
      "ĠRac": 7081,
      "ĠRent": 7082,
      "Ġbus": 7083,
      "Ġpir": 7084,
      "Ġpip": 7085,
      "etooth": 7086,
      "ĠGC": 7087,
      "ĠGM": 7088,
      "ĠLi": 7089,
      "ĠLion": 7090,
      "ĠEat": 7091,
      "elp": 7092,
      "ĠNest": 7093,
      "Ġforce": 7094,
      "igma": 7095,
      "ĠUN": 7096,
      "Ġlater": 7097,
      "unities": 7098,
      "open": 7099,
      "ulating": 7100,
      "ĠVen": 7101,
      "ĠVari": 7102,
      "ĠVeg": 7103,
      "thesis": 7104,
      "istake": 7105,
      "Ġ1000": 7106,
      "ĠThr": 7107,
      "ĠThose": 7108,
      "ĠIsland": 7109,
      "quake": 7110,
      "Ġbeat": 7111,
      "Ġconcept": 7112,
      "ĠComponents": 7113,
      "udd": 7114,
      "Ġexamples": 7115,
      "ĠBegins": 7116,
      "Ġchips": 7117,
      "Ġeye": 7118,
      "Ġkills": 7119,
      "ĠBlind": 7120,
      "inks": 7121,
      "âĢĿ:": 7122,
      "ĠTwilio": 7123,
      "Ġscan": 7124,
      "oyal": 7125,
      "yself": 7126,
      "Ġsues": 7127,
      "Ġunique": 7128,
      "ĠContact": 7129,
      "lectual": 7130,
      "mselves": 7131,
      "ĠLinear": 7132,
      "ĠCommercial": 7133,
      "ĠBrings": 7134,
      "ĠBridge": 7135,
      "ĠRedesign": 7136,
      "ĠOuts": 7137,
      "Ġcommercial": 7138,
      "ĠComes": 7139,
      "atters": 7140,
      "2004": 7141,
      "2006": 7142,
      "clusive": 7143,
      "Ġmodule": 7144,
      "ĠSeason": 7145,
      "arma": 7146,
      "ĠExplore": 7147,
      "ĠCalendar": 7148,
      "Ġremove": 7149,
      "ĠItself": 7150,
      "Ġ198": 7151,
      "ĠActions": 7152,
      "ĠActually": 7153,
      "Ġbecomes": 7154,
      "Ġprotocol": 7155,
      "Ġpasses": 7156,
      "ĠAnnounce": 7157,
      "iquid": 7158,
      "ĠMeteor": 7159,
      "ĠDemocracy": 7160,
      "Ġsetup": 7161,
      "ĠPasswords": 7162,
      "ĠSetup": 7163,
      "Ġmoves": 7164,
      "ĠHybrid": 7165,
      "Ġformat": 7166,
      "irmed": 7167,
      "ĠFrameworks": 7168,
      "ĠLightweight": 7169,
      "ĠUnderstand": 7170,
      "Ġplayer": 7171,
      "ĠSalesforce": 7172,
      "Ġannounced": 7173,
      "ĠChris": 7174,
      "ĠPhotoshop": 7175,
      "Ġfilter": 7176,
      "ĠEntrepreneurship": 7177,
      "ĠTracker": 7178,
      "acteria": 7179,
      "Ġtypes": 7180,
      "Ġfresh": 7181,
      "ĠMathematics": 7182,
      "Ġofficially": 7183,
      "Ġeffective": 7184,
      "ĠDatas": 7185,
      "Ġdetails": 7186,
      "Ġsatellite": 7187,
      "Ġinternal": 7188,
      "ĠFAQ": 7189,
      "Ġsalary": 7190,
      "ĠAstronom": 7191,
      "ĠTerra": 7192,
      "ĠPsychology": 7193,
      "ĠUnicode": 7194,
      "ĠWWDC": 7195,
      "Ġsafety": 7196,
      "ĠDVD": 7197,
      "undreds": 7198,
      "ĠStephen": 7199,
      "ĠSeptember": 7200,
      "ĠArduino": 7201,
      "Al": 7202,
      "Dev": 7203,
      "Leaks": 7204,
      "Over": 7205,
      "SW": 7206,
      "Te": 7207,
      "bal": 7208,
      "col": 7209,
      "camp": 7210,
      "crast": 7211,
      "ql": 7212,
      "uing": 7213,
      "xit": 7214,
      "Ġtit": 7215,
      "Ġtim": 7216,
      "Ġtaught": 7217,
      "ĠShe": 7218,
      "arc": 7219,
      "ĠTO": 7220,
      "ĠTask": 7221,
      "ĠTogether": 7222,
      "ĠCru": 7223,
      "ĠCred": 7224,
      "ĠCameras": 7225,
      "ĠCVE": 7226,
      "ĠCrazy": 7227,
      "alled": 7228,
      "ĠHum": 7229,
      "ĠHistor": 7230,
      "ĠPet": 7231,
      "ĠPiv": 7232,
      "ĠMes": 7233,
      "ĠDA": 7234,
      "ĠDot": 7235,
      "ĠDocuments": 7236,
      "Ġseed": 7237,
      "Ġsaved": 7238,
      "ĠBow": 7239,
      "ĠFiction": 7240,
      "ĠFemale": 7241,
      "Ġbab": 7242,
      "Ġdrones": 7243,
      "Ġdatabases": 7244,
      "ĠLosing": 7245,
      "ĠEarn": 7246,
      "ented": 7247,
      "ĠOpp": 7248,
      "imb": 7249,
      "Ġlibraries": 7250,
      "Ġnation": 7251,
      "uning": 7252,
      "uls": 7253,
      "ĠViral": 7254,
      "ĠJail": 7255,
      "avy": 7256,
      "istical": 7257,
      "ĠAnything": 7258,
      "ument": 7259,
      "umps": 7260,
      "ipulation": 7261,
      "osis": 7262,
      "expected": 7263,
      "ĠChain": 7264,
      "ĠThiel": 7265,
      "ĠApprov": 7266,
      "Ġrights": 7267,
      "angers": 7268,
      "ĠSci": 7269,
      "Ġconvert": 7270,
      "ĠCluster": 7271,
      "ordan": 7272,
      "Ġexchange": 7273,
      "Ġexposed": 7274,
      "Ġdoct": 7275,
      "ĠPlant": 7276,
      "Ġtrouble": 7277,
      "ĠAdapt": 7278,
      "ĠBloom": 7279,
      "Ġcannot": 7280,
      "Ġnotifications": 7281,
      "athan": 7282,
      "Ġhell": 7283,
      "Ġ400": 7284,
      "ĠHackathon": 7285,
      "ĠEmbr": 7286,
      "ĠQuery": 7287,
      "Ġsuch": 7288,
      "ĠPhoenix": 7289,
      "Ġalleg": 7290,
      "197": 7291,
      "ĠDress": 7292,
      "ĠRece": 7293,
      "ounty": 7294,
      "ĠMuse": 7295,
      "ĠElastic": 7296,
      "Ġrecords": 7297,
      "orney": 7298,
      "Ġshouldn": 7299,
      "Ġaccident": 7300,
      "ĠCrime": 7301,
      "ĠConsole": 7302,
      "ĠParam": 7303,
      "Ind": 7304,
      "uilty": 7305,
      "atteries": 7306,
      "ĠAccident": 7307,
      "ĠExpert": 7308,
      "ĠTeaching": 7309,
      "yte": 7310,
      "Ġbusinesses": 7311,
      "Ġmini": 7312,
      "ĠInvestig": 7313,
      "shit": 7314,
      "Ġcreates": 7315,
      "ĠAssange": 7316,
      "Ġplanning": 7317,
      "ĠBecause": 7318,
      "ĠFormat": 7319,
      "ĠScalable": 7320,
      "ĠArchitect": 7321,
      "ĠLego": 7322,
      "Ġlogo": 7323,
      "ĠGenetic": 7324,
      "ĠMatrix": 7325,
      "ĠMotion": 7326,
      "ĠWallpapers": 7327,
      "ĠGrav": 7328,
      "Ġdeliver": 7329,
      "Ġbanks": 7330,
      "ĠSatellite": 7331,
      "ĠLibre": 7332,
      "ĠWiFi": 7333,
      "Ġvisualization": 7334,
      "Ġoperations": 7335,
      "parency": 7336,
      "Ġdocumentation": 7337,
      "ĠPublishing": 7338,
      "ĠShopify": 7339,
      "ĠOctober": 7340,
      "ĠRecommendations": 7341,
      "unnel": 7342,
      "ĠRethinking": 7343,
      "ĠBluetooth": 7344,
      "ĠOCaml": 7345,
      "ĠLouis": 7346,
      "gebra": 7347,
      "23": 7348,
      "FF": 7349,
      "World": 7350,
      "bes": 7351,
      "bird": 7352,
      "block": 7353,
      "case": 7354,
      "eaking": 7355,
      "gment": 7356,
      "human": 7357,
      "iece": 7358,
      "ju": 7359,
      "vant": 7360,
      "watch": 7361,
      "yles": 7362,
      "Ġess": 7363,
      "Ġorders": 7364,
      "Ĥ¬": 7365,
      "inj": 7366,
      "onic": 7367,
      "Ġtaken": 7368,
      "ĠSund": 7369,
      "ĠSheet": 7370,
      "ĠAffect": 7371,
      "ĠAaron": 7372,
      "itute": 7373,
      "ĠTS": 7374,
      "ĠTLS": 7375,
      "ĠCES": 7376,
      "ĠPic": 7377,
      "ĠMO": 7378,
      "ĠMapping": 7379,
      "ĠWish": 7380,
      "ĠWoman": 7381,
      "ĠIcon": 7382,
      "ĠDave": 7383,
      "ĠDOM": 7384,
      "ĠDocs": 7385,
      "Ġseek": 7386,
      "ĠBin": 7387,
      "ĠBull": 7388,
      "Ġopport": 7389,
      "acecraft": 7390,
      "Ġbet": 7391,
      "Ġbel": 7392,
      "Ġporn": 7393,
      "ĠGCC": 7394,
      "ĠGithub": 7395,
      "Ġden": 7396,
      "Ġdangerous": 7397,
      "Ġdespite": 7398,
      "ĠLines": 7399,
      "ĠLua": 7400,
      "asion": 7401,
      "asma": 7402,
      "ĠNation": 7403,
      "ĠNginx": 7404,
      "Ġforeign": 7405,
      "amil": 7406,
      "ĠOculus": 7407,
      "olt": 7408,
      "term": 7409,
      "cho": 7410,
      "ĠStorm": 7411,
      "Ġhour": 7412,
      "Ġhab": 7413,
      "Ġhuge": 7414,
      "Ġhousing": 7415,
      "Ġgone": 7416,
      "eboard": 7417,
      "rav": 7418,
      "ĠJVM": 7419,
      "ĠProposal": 7420,
      "ĠChips": 7421,
      "ĠKin": 7422,
      "Ġren": 7423,
      "Ġrule": 7424,
      "ĠExecution": 7425,
      "ĠClone": 7426,
      "Ġexample": 7427,
      "ĠAmb": 7428,
      "assment": 7429,
      "Ġ37": 7430,
      "ĠiM": 7431,
      "bert": 7432,
      "Ġtruth": 7433,
      "Ġjail": 7434,
      "Ġspot": 7435,
      "ĠOpens": 7436,
      "ĠAndrew": 7437,
      "Ġscreens": 7438,
      "ĠEmb": 7439,
      "ĠWorkplace": 7440,
      "Ġsuff": 7441,
      "ĠFlask": 7442,
      "ĠCompute": 7443,
      "ĠGrad": 7444,
      "ĠGroups": 7445,
      "ĠPartner": 7446,
      "ĠElasticsearch": 7447,
      "ĠAirb": 7448,
      "ĠSwiss": 7449,
      "ĠBackbone": 7450,
      "Ġneeded": 7451,
      "ĠDisrupt": 7452,
      "ĠToolkit": 7453,
      "onto": 7454,
      "ĠRobin": 7455,
      "ĠAccounts": 7456,
      "Ġpaying": 7457,
      "ĠOptions": 7458,
      "Ġhigher": 7459,
      "ĠInfo": 7460,
      "Ġexplains": 7461,
      "Ġamid": 7462,
      "ĠRetro": 7463,
      "ĠRetail": 7464,
      "ĠBrains": 7465,
      "Ġinstant": 7466,
      "errible": 7467,
      "ĠAbs": 7468,
      "ĠLogic": 7469,
      "Ġrelationship": 7470,
      "Ġformer": 7471,
      "Ġconfirms": 7472,
      "ottom": 7473,
      "ĠSurvive": 7474,
      "ĠSurvival": 7475,
      "ĠKiller": 7476,
      "ĠHotel": 7477,
      "Ġannounce": 7478,
      "ĠSummit": 7479,
      "Ġbreaks": 7480,
      "Ġspecial": 7481,
      "ĠTutorials": 7482,
      "ĠWallet": 7483,
      "ĠÙħØ": 7484,
      "Ġscratch": 7485,
      "What": 7486,
      "Ġintroduction": 7487,
      "ĠReflect": 7488,
      "Ġwindow": 7489,
      "ĠLawsuit": 7490,
      "Ġprovide": 7491,
      "Ġcharacter": 7492,
      "Ġcauses": 7493,
      "gotten": 7494,
      "oubles": 7495,
      "ĠCoinbase": 7496,
      "Ġuniverse": 7497,
      "ĠRapid": 7498,
      "ĠExecutive": 7499,
      "ĠLeadership": 7500,
      "ĠAcademy": 7501,
      "Ġbroadband": 7502,
      "redicting": 7503,
      "Ġvehicles": 7504,
      "Ġwireless": 7505,
      "ĠGallery": 7506,
      "Crunch": 7507,
      "ĠVirgin": 7508,
      "itrust": 7509,
      "ĠSoviet": 7510,
      "ilemma": 7511,
      "600": 7512,
      "API": 7513,
      "Gr": 7514,
      "Gener": 7515,
      "IV": 7516,
      "NG": 7517,
      "TL": 7518,
      "Torrent": 7519,
      "cuts": 7520,
      "fort": 7521,
      "ieve": 7522,
      "king": 7523,
      "nes": 7524,
      "oices": 7525,
      "zen": 7526,
      "Ġer": 7527,
      "Ġerror": 7528,
      "erging": 7529,
      "only": 7530,
      "anation": 7531,
      "ĠSM": 7532,
      "ĠTro": 7533,
      "ĠTag": 7534,
      "ĠTargets": 7535,
      "ĠCognitive": 7536,
      "ĠHur": 7537,
      "ĠHang": 7538,
      "ĠHits": 7539,
      "ĠHole": 7540,
      "ĠHorr": 7541,
      "reement": 7542,
      "ĠPion": 7543,
      "ĠPoints": 7544,
      "ĠMi": 7545,
      "ĠMr": 7546,
      "ĠMike": 7547,
      "ĠMatch": 7548,
      "ĠMigration": 7549,
      "iced": 7550,
      "icies": 7551,
      "Ġtog": 7552,
      "ĠIOS": 7553,
      "ĠIgn": 7554,
      "ĠDRM": 7555,
      "Ġspl": 7556,
      "Ġcoffee": 7557,
      "ĠBo": 7558,
      "ĠBon": 7559,
      "Ġwarming": 7560,
      "acon": 7561,
      "ĠField": 7562,
      "ĠRE": 7563,
      "ĠRover": 7564,
      "ĠRendering": 7565,
      "Ġinput": 7566,
      "Ġburn": 7567,
      "Ġbrowsers": 7568,
      "Ġpen": 7569,
      "Ġple": 7570,
      "Ġpsych": 7571,
      "Ġpoints": 7572,
      "etime": 7573,
      "Ġdepend": 7574,
      "Ġdashboard": 7575,
      "Ġdifference": 7576,
      "Ġdocuments": 7577,
      "Ġdestroy": 7578,
      "ĠLoop": 7579,
      "ĠLaser": 7580,
      "Ġforward": 7581,
      "oly": 7582,
      "imination": 7583,
      "Ġla": 7584,
      "ĠStolen": 7585,
      "unge": 7586,
      "Ġhar": 7587,
      "Ġhands": 7588,
      "Ġgiven": 7589,
      "ulting": 7590,
      "ĠVs": 7591,
      "ĠVit": 7592,
      "Ġstopped": 7593,
      "aba": 7594,
      "ĠJersey": 7595,
      "ĠAnatomy": 7596,
      "ĠRepres": 7597,
      "ĠChild": 7598,
      "outube": 7599,
      "asting": 7600,
      "arden": 7601,
      "Ġusage": 7602,
      "ptoms": 7603,
      "iking": 7604,
      "ĠTrial": 7605,
      "ĠTrouble": 7606,
      "ĠSpam": 7607,
      "ĠOnce": 7608,
      "Ġcomponents": 7609,
      "ĠPrimer": 7610,
      "perature": 7611,
      "ensions": 7612,
      "Ġearth": 7613,
      "Ġeyes": 7614,
      "Ġplastic": 7615,
      "ĠDoor": 7616,
      "ĠAndre": 7617,
      "ologists": 7618,
      "ĠEmber": 7619,
      "ĠEmbed": 7620,
      "Ġsued": 7621,
      "ĠPhD": 7622,
      "Ġcontext": 7623,
      "ĠXP": 7624,
      "Ġroot": 7625,
      "ĠGuard": 7626,
      "ĠParts": 7627,
      "ĠBackup": 7628,
      "ĠOverflow": 7629,
      "ĠEditing": 7630,
      "Ġautonomous": 7631,
      "ĠPoly": 7632,
      "Ġdecade": 7633,
      "Inf": 7634,
      "ĠAccept": 7635,
      "ĠStarts": 7636,
      "ĠPrototype": 7637,
      "ĠPaying": 7638,
      "Ġstrange": 7639,
      "Ġground": 7640,
      "ĠAutomate": 7641,
      "ĠListen": 7642,
      "ĠMovies": 7643,
      "ĠDemand": 7644,
      "Ġplatforms": 7645,
      "Ġinfo": 7646,
      "Ġoptions": 7647,
      "ĠHappened": 7648,
      "Ġobs": 7649,
      "ĠPresent": 7650,
      "ĠRaise": 7651,
      "Ġacquired": 7652,
      "Ġelectricity": 7653,
      "ĠCountries": 7654,
      "ĠQualcomm": 7655,
      "Ġdomains": 7656,
      "Ġthreatens": 7657,
      "ING": 7658,
      "Ġschools": 7659,
      "hosted": 7660,
      "Ġdirectly": 7661,
      "ĠPredictions": 7662,
      "ĠMathematic": 7663,
      "ĠBootstra": 7664,
      "ĠDocumentation": 7665,
      "Ġjoins": 7666,
      "Ġasked": 7667,
      "ometric": 7668,
      "ĠIsraeli": 7669,
      "ĠAtomic": 7670,
      "ĠSweden": 7671,
      "computer": 7672,
      "ĠMexico": 7673,
      "ĠVentures": 7674,
      "ĠiTunes": 7675,
      "ĠSaudi": 7676,
      "**": 7677,
      ",'": 7678,
      "?âĢĿ": 7679,
      "Fr": 7680,
      "Form": 7681,
      "Gen": 7682,
      "HT": 7683,
      "IO": 7684,
      "Mon": 7685,
      "Map": 7686,
      "Market": 7687,
      "VID": 7688,
      "from": 7689,
      "lies": 7690,
      "mid": 7691,
      "mare": 7692,
      "making": 7693,
      "racts": 7694,
      "vy": 7695,
      "Ùĩ": 7696,
      "Ġ`": 7697,
      "ona": 7698,
      "Ġteen": 7699,
      "Ġtasks": 7700,
      "anish": 7701,
      "atible": 7702,
      "ĠSense": 7703,
      "ĠAV": 7704,
      "ĠAw": 7705,
      "ĠAx": 7706,
      "ĠAwards": 7707,
      "ĠCass": 7708,
      "ĠCurrent": 7709,
      "ĠHon": 7710,
      "Ġfield": 7711,
      "ĠMA": 7712,
      "ĠMel": 7713,
      "ĠIron": 7714,
      "ĠDC": 7715,
      "ĠDim": 7716,
      "ĠDual": 7717,
      "ĠDiss": 7718,
      "Ġsan": 7719,
      "Ġcoin": 7720,
      "isible": 7721,
      "ĠRog": 7722,
      "ĠRyz": 7723,
      "Ġboth": 7724,
      "ĠGovern": 7725,
      "ilers": 7726,
      "ĠLuc": 7727,
      "ĠLazy": 7728,
      "ĠEE": 7729,
      "ĠEgy": 7730,
      "Ġmental": 7731,
      "enty": 7732,
      "ĠNE": 7733,
      "ĠNer": 7734,
      "ĠOx": 7735,
      "utation": 7736,
      "ada": 7737,
      "ithium": 7738,
      "Ġliving": 7739,
      "ĠStocks": 7740,
      "Ġhidden": 7741,
      "Ġhospital": 7742,
      "agen": 7743,
      "Ġgender": 7744,
      "Ġstates": 7745,
      "abet": 7746,
      "ĠJQuery": 7747,
      "ĠKev": 7748,
      "Ġanymore": 7749,
      "Ġpros": 7750,
      "ĠApply": 7751,
      "ailability": 7752,
      "ĠScreens": 7753,
      "ĠClinton": 7754,
      "Ġexerc": 7755,
      "Ġleaving": 7756,
      "Ġleaked": 7757,
      "ĠBeauty": 7758,
      "asses": 7759,
      "Ġchain": 7760,
      "Ġchannel": 7761,
      "Ġ28": 7762,
      "ĠPlastic": 7763,
      "ensitive": 7764,
      "erves": 7765,
      "Ġtrip": 7766,
      "Ġtrick": 7767,
      "ouses": 7768,
      "ĠCanvas": 7769,
      "undle": 7770,
      "Ġupgrade": 7771,
      "ĠQuit": 7772,
      "ĠWorkflow": 7773,
      "ĠRevenue": 7774,
      "ĠLeap": 7775,
      "ĠContest": 7776,
      "ĠContext": 7777,
      "rains": 7778,
      "ĠFlutter": 7779,
      "Ġweather": 7780,
      "ĠRecords": 7781,
      "ĠRecovery": 7782,
      "ruary": 7783,
      "Ġagency": 7784,
      "ĠOffline": 7785,
      "Ġtoolkit": 7786,
      "ĠValuation": 7787,
      "ĠMacs": 7788,
      "ĠAirport": 7789,
      "Ġbutton": 7790,
      "ĠImpossible": 7791,
      "ĠSeen": 7792,
      "ĠArticle": 7793,
      "Ġsmarter": 7794,
      "ĠFirebase": 7795,
      "Ġaccused": 7796,
      "ainstream": 7797,
      "riage": 7798,
      "ĠCarl": 7799,
      "ĠRobert": 7800,
      "ĠDiscount": 7801,
      "ĠEuro": 7802,
      "ĠPayment": 7803,
      "ĠCEOs": 7804,
      "ĠCreated": 7805,
      "umblr": 7806,
      "Ġconsole": 7807,
      "Ġhelped": 7808,
      "ĠDebug": 7809,
      "ĠEntire": 7810,
      "shop": 7811,
      "ĠAssembly": 7812,
      "Ġexplained": 7813,
      "ĠDelhi": 7814,
      "Ġsolving": 7815,
      "ĠProfessional": 7816,
      "ĠForms": 7817,
      "Ġthinking": 7818,
      "Ġfunctions": 7819,
      "ĠMeetup": 7820,
      "Ġmovies": 7821,
      "Ġprofit": 7822,
      "ĠTalking": 7823,
      "ĠWeekend": 7824,
      "Ġprocessor": 7825,
      "ĠHappiness": 7826,
      "Ġability": 7827,
      "ĠBrexit": 7828,
      "ĠPresentation": 7829,
      "Ġsmartphones": 7830,
      "ĠAuthent": 7831,
      "ĠOpera": 7832,
      "ĠOperations": 7833,
      "ĠSQLite": 7834,
      "1999": 7835,
      "ĠRespons": 7836,
      "ĠGroupon": 7837,
      "Ġcybersecurity": 7838,
      "Chat": 7839,
      "ĠTimeline": 7840,
      "enchmark": 7841,
      "ĠPhysical": 7842,
      "ĠMcDon": 7843,
      "ĠDeploying": 7844,
      "ĠToronto": 7845,
      "ĠFilter": 7846,
      "Ġsupply": 7847,
      "Scale": 7848,
      "otional": 7849,
      "ĠTrek": 7850,
      "ĠÙħØ¨": 7851,
      "aurant": 7852,
      "Ġscripts": 7853,
      "ĠJoins": 7854,
      "ĠSupply": 7855,
      "ĠCPUs": 7856,
      "ĠAnimation": 7857,
      "Ġorigin": 7858,
      "ĠProgressive": 7859,
      "ĠNobody": 7860,
      "Ġfollowing": 7861,
      "www": 7862,
      "Ġsuggests": 7863,
      "ĠPipeline": 7864,
      "addy": 7865,
      "ĠObserv": 7866,
      "Android": 7867,
      "ĠMurder": 7868,
      "ĠAdventure": 7869,
      "ĠTelescope": 7870,
      "Ġutility": 7871,
      "losure": 7872,
      "Ġbenefits": 7873,
      "ĠHedge": 7874,
      "Powered": 7875,
      "Ġtogether": 7876,
      "ĠRyzen": 7877,
      "ĠEgypt": 7878,
      "28": 7879,
      "250": 7880,
      "45": 7881,
      "DO": 7882,
      "GI": 7883,
      "Out": 7884,
      "Py": 7885,
      "Term": 7886,
      "WA": 7887,
      "df": 7888,
      "fly": 7889,
      "file": 7890,
      "wid": 7891,
      "ĠÎ": 7892,
      "Ġign": 7893,
      "Ġtag": 7894,
      "Ġtalent": 7895,
      "Ġtargets": 7896,
      "organ": 7897,
      "ĠSaid": 7898,
      "iture": 7899,
      "ĠTale": 7900,
      "ĠTED": 7901,
      "ĠCuts": 7902,
      "ĠClear": 7903,
      "ĠCensorship": 7904,
      "ĠHospital": 7905,
      "leph": 7906,
      "leges": 7907,
      "Ġflex": 7908,
      "Ġfinal": 7909,
      "ĠPeer": 7910,
      "rot": 7911,
      "ĠWood": 7912,
      "Ġtot": 7913,
      "ĠIM": 7914,
      "ĠDM": 7915,
      "ĠDest": 7916,
      "ĠDub": 7917,
      "ĠDone": 7918,
      "ĠDial": 7919,
      "ĠDestroy": 7920,
      "Ġcred": 7921,
      "Ġopp": 7922,
      "Ġwealth": 7923,
      "acebook": 7924,
      "ĠFore": 7925,
      "ĠFont": 7926,
      "ĠFTC": 7927,
      "ĠFully": 7928,
      "ĠRide": 7929,
      "ĠRates": 7930,
      "ĠRisks": 7931,
      "Ġpure": 7932,
      "Ġpurch": 7933,
      "ĠGn": 7934,
      "ĠGad": 7935,
      "ĠGeek": 7936,
      "Ġdog": 7937,
      "Ġdollar": 7938,
      "Ġmar": 7939,
      "Ġmix": 7940,
      "Ġmatch": 7941,
      "ĠNL": 7942,
      "ĠNix": 7943,
      "idering": 7944,
      "ĠTheft": 7945,
      "olar": 7946,
      "olph": 7947,
      "aded": 7948,
      "ĠInequality": 7949,
      "Ġlif": 7950,
      "Ġlate": 7951,
      "Ġnov": 7952,
      "Ġnatural": 7953,
      "Ġnormal": 7954,
      "ĠStage": 7955,
      "ĠStable": 7956,
      "ĠStructures": 7957,
      "unar": 7958,
      "unning": 7959,
      "Ġhunt": 7960,
      "Ġhij": 7961,
      "aga": 7962,
      "emand": 7963,
      "essing": 7964,
      "ulators": 7965,
      "Ġrein": 7966,
      "ĠYelp": 7967,
      "raight": 7968,
      "ctic": 7969,
      "Ġstolen": 7970,
      "ĠAnimal": 7971,
      "osion": 7972,
      "Ġthousands": 7973,
      "ĠKe": 7974,
      "usters": 7975,
      "sey": 7976,
      "ĠSports": 7977,
      "Ġled": 7978,
      "Ġleaks": 7979,
      "Ġcompl": 7980,
      "uggle": 7981,
      "ĠAdm": 7982,
      "ĠQt": 7983,
      "Ġspin": 7984,
      "Ġspreads": 7985,
      "ĠImpl": 7986,
      "athy": 7987,
      "ĠManual": 7988,
      "Ġworked": 7989,
      "Ġ48": 7990,
      "ĠEmbedded": 7991,
      "ĠLeads": 7992,
      "Ġunc": 7993,
      "Ġuns": 7994,
      "Ġemissions": 7995,
      "ĠDrag": 7996,
      "ĠDepression": 7997,
      "ĠCommit": 7998,
      "ĠWindow": 7999,
      "ĠAgency": 8000,
      "iverse": 8001,
      "Ġrecogn": 8002,
      "ierarch": 8003,
      "Ġcommit": 8004,
      "Ġhacks": 8005,
      "ĠGenerative": 8006,
      "ĠDecline": 8007,
      "posure": 8008,
      "rief": 8009,
      "ĠHeads": 8010,
      "aires": 8011,
      "essionals": 8012,
      "ĠNeo": 8013,
      "Ġmarketplace": 8014,
      "ĠMayer": 8015,
      "Ġexperts": 8016,
      "cedes": 8017,
      "tenance": 8018,
      "official": 8019,
      "ĠPhotography": 8020,
      "Ġtweet": 8021,
      "ariju": 8022,
      "Ġplane": 8023,
      "ĠInfinite": 8024,
      "ĠGreatest": 8025,
      "Ġsolutions": 8026,
      "ĠProfessor": 8027,
      "Ġdefin": 8028,
      "Ġanalyz": 8029,
      "Ġvaluation": 8030,
      "Ġrelated": 8031,
      "Ġhappen": 8032,
      "Ġabuse": 8033,
      "ĠWinning": 8034,
      "Ġlinked": 8035,
      "ĠPromise": 8036,
      "proof": 8037,
      "ĠAcquire": 8038,
      "ĠBias": 8039,
      "Ġcentury": 8040,
      "Ġdelivery": 8041,
      "ictionary": 8042,
      "ĠTurkey": 8043,
      "ĠGoldman": 8044,
      "Ġsimilar": 8045,
      "ademark": 8046,
      "Ġstandards": 8047,
      "ĠQuickly": 8048,
      "Ġredesign": 8049,
      "Ġauthentication": 8050,
      "ĠWalmart": 8051,
      "Ġsyntax": 8052,
      "ĠRoadmap": 8053,
      "Ġcurated": 8054,
      "ĠCharacter": 8055,
      "Ġmeeting": 8056,
      "ĠSchmid": 8057,
      "ĠSenior": 8058,
      "ĠIncreasing": 8059,
      "ĠSymbol": 8060,
      "ĠBeginners": 8061,
      "ĠIllustr": 8062,
      "ĠBenchmarks": 8063,
      "Ġdrops": 8064,
      "Ġcharging": 8065,
      "ĠEasier": 8066,
      "Ġlimit": 8067,
      "ĠCalculator": 8068,
      "ĠReinforcement": 8069,
      "ĠReduce": 8070,
      "Ġlayoffs": 8071,
      "ĠLaravel": 8072,
      "Ġtemplate": 8073,
      "ĠItaly": 8074,
      "Ġenterprise": 8075,
      "ĠMeasuring": 8076,
      "ĠTotal": 8077,
      "ĠConsciousness": 8078,
      "arijuana": 8079,
      "400": 8080,
      "75": 8081,
      "?)": 8082,
      "CS": 8083,
      "FT": 8084,
      "Facebook": 8085,
      "IG": 8086,
      "New": 8087,
      "OT": 8088,
      "With": 8089,
      "bar": 8090,
      "cles": 8091,
      "gery": 8092,
      "lad": 8093,
      "lands": 8094,
      "mm": 8095,
      "no": 8096,
      "table": 8097,
      "Ã¡": 8098,
      "ÙĤ": 8099,
      "ä¸": 8100,
      "Ġera": 8101,
      "inf": 8102,
      "inct": 8103,
      "eration": 8104,
      "Ġten": 8105,
      "ĠASP": 8106,
      "ĠAhead": 8107,
      "ĠAverage": 8108,
      "ĠArab": 8109,
      "ingly": 8110,
      "ito": 8111,
      "ĠTSA": 8112,
      "ĠTalent": 8113,
      "ĠTHE": 8114,
      "ĠTumblr": 8115,
      "ĠCatch": 8116,
      "ĠCells": 8117,
      "ĠCause": 8118,
      "aling": 8119,
      "store": 8120,
      "ĠHall": 8121,
      "ĠHaving": 8122,
      "rep": 8123,
      "reenc": 8124,
      "ĠPuts": 8125,
      "Ġable": 8126,
      "Ġaudio": 8127,
      "ĠMesh": 8128,
      "ĠMaint": 8129,
      "ĠMakers": 8130,
      "icit": 8131,
      "ĠWS": 8132,
      "ĠDro": 8133,
      "ĠDating": 8134,
      "ĠBans": 8135,
      "Ġwrote": 8136,
      "ĠRu": 8137,
      "ĠRush": 8138,
      "Ġbought": 8139,
      "Ġbudget": 8140,
      "Ġpret": 8141,
      "ilation": 8142,
      "ĠLiv": 8143,
      "ĠLever": 8144,
      "ĠEM": 8145,
      "ĠEll": 8146,
      "ĠEcho": 8147,
      "enter": 8148,
      "elance": 8149,
      "ĠNPM": 8150,
      "Ġforms": 8151,
      "oops": 8152,
      "iga": 8153,
      "ĠTheme": 8154,
      "usual": 8155,
      "adata": 8156,
      "ither": 8157,
      "Ġhistor": 8158,
      "ĠVeh": 8159,
      "ĠShift": 8160,
      "ĠAsynchronous": 8161,
      "Ġstars": 8162,
      "ĠJam": 8163,
      "ĠJordan": 8164,
      "ista": 8165,
      "ipting": 8166,
      "ĠProvid": 8167,
      "Ġvan": 8168,
      "ĠChaos": 8169,
      "ĠThunder": 8170,
      "Ġrare": 8171,
      "Ġresign": 8172,
      "quency": 8173,
      "Ġcond": 8174,
      "Ġconver": 8175,
      "ĠClos": 8176,
      "ĠCompl": 8177,
      "ĠComprehensive": 8178,
      "Ġshuts": 8179,
      "Ġleading": 8180,
      "Ġlevels": 8181,
      "Ġchart": 8182,
      "Ġchrome": 8183,
      "Ġ32": 8184,
      "ĠAlc": 8185,
      "ĠWebpack": 8186,
      "Ġ26": 8187,
      "ĠPlaces": 8188,
      "ĠPlasma": 8189,
      "crimination": 8190,
      "ĠQR": 8191,
      "ĠTweets": 8192,
      "ĠCanon": 8193,
      "Ġspent": 8194,
      "Ġspend": 8195,
      "ĠOpenStack": 8196,
      "ĠTechCrunch": 8197,
      "ĠWeight": 8198,
      "ĠWeapon": 8199,
      "ĠiPod": 8200,
      "ĠQuant": 8201,
      "ĠLeak": 8202,
      "ĠLeader": 8203,
      "ĠContribut": 8204,
      "ĠBuilds": 8205,
      "ĠFlip": 8206,
      "appy": 8207,
      "Ġembedded": 8208,
      "rich": 8209,
      "ĠMeans": 8210,
      "ĠMeets": 8211,
      "Ġquiet": 8212,
      "ĠModular": 8213,
      "ĠOrd": 8214,
      "ĠUpgrade": 8215,
      "ĠBigger": 8216,
      "rowsing": 8217,
      "iversary": 8218,
      "ĠValid": 8219,
      "ĠComment": 8220,
      "ĠVisa": 8221,
      "ĠBackground": 8222,
      "ĠTechniques": 8223,
      "Ġaccording": 8224,
      "ĠDiscovered": 8225,
      "idential": 8226,
      "Ġproductive": 8227,
      "ĠLawyer": 8228,
      "ĠActiv": 8229,
      "ĠExperiences": 8230,
      "ĠCryptography": 8231,
      "ĠGPL": 8232,
      "Ġmanagers": 8233,
      "ĠBlogging": 8234,
      "ĠMoore": 8235,
      "Ġinvesting": 8236,
      "Ġsetting": 8237,
      "ĠAbstract": 8238,
      "ĠWikile": 8239,
      "Ġolder": 8240,
      "ĠWanted": 8241,
      "Ġfunds": 8242,
      "Ġparents": 8243,
      "ĠEthics": 8244,
      "Ġadded": 8245,
      "ĠAcquisition": 8246,
      "Ġpackages": 8247,
      "ĠSummary": 8248,
      "ĠRequire": 8249,
      "Ġvaccines": 8250,
      "Ġgenetic": 8251,
      "ĠObjective": 8252,
      "ĠBritain": 8253,
      "Ġfriend": 8254,
      "Ġseconds": 8255,
      "commerce": 8256,
      "ĠNYT": 8257,
      "ĠBeginner": 8258,
      "ĠAugmented": 8259,
      "itted": 8260,
      "ĠMyths": 8261,
      "Ġorigins": 8262,
      "ĠToward": 8263,
      "Ġcharges": 8264,
      "Ġcaused": 8265,
      "ĠRanking": 8266,
      "ĠLLVM": 8267,
      "Ġastron": 8268,
      "ĠWikiLeaks": 8269,
      "Ġprinting": 8270,
      "ĠOlympics": 8271,
      "Ġfacial": 8272,
      "ĠFootball": 8273,
      "Ġcounter": 8274,
      "roversial": 8275,
      "Ġdatas": 8276,
      "Ġeffort": 8277,
      "ĠWolfram": 8278,
      "ĠâĤ¬": 8279,
      "ĠMuseum": 8280,
      "ĠKevin": 8281,
      "ĠForeign": 8282,
      "ĠSchmidt": 8283,
      "36": 8284,
      "77": 8285,
      "Commerce": 8286,
      "Data": 8287,
      "Gu": 8288,
      "My": 8289,
      "Not": 8290,
      "News": 8291,
      "card": 8292,
      "fire": 8293,
      "gel": 8294,
      "gun": 8295,
      "iar": 8296,
      "iability": 8297,
      "jan": 8298,
      "lime": 8299,
      "oa": 8300,
      "rest": 8301,
      "rors": 8302,
      "rated": 8303,
      "typ": 8304,
      "uable": 8305,
      "xiety": 8306,
      "yd": 8307,
      "Ã¶": 8308,
      "Ð°": 8309,
      "Ġ@": 8310,
      "inating": 8311,
      "Ġtree": 8312,
      "Ġturning": 8313,
      "orem": 8314,
      "ĠTal": 8315,
      "ĠTerror": 8316,
      "ĠCort": 8317,
      "ĠCree": 8318,
      "ĠCurrency": 8319,
      "ĠCaching": 8320,
      "star": 8321,
      "ĠHa": 8322,
      "ĠHop": 8323,
      "ĠHear": 8324,
      "ĠHide": 8325,
      "ĠHype": 8326,
      "lee": 8327,
      "Ġfat": 8328,
      "Ġfold": 8329,
      "ĠPun": 8330,
      "ĠPatch": 8331,
      "Ġaverage": 8332,
      "ĠMP": 8333,
      "ĠMand": 8334,
      "ĠMarg": 8335,
      "icity": 8336,
      "ĠWent": 8337,
      "edi": 8338,
      "ĠDiet": 8339,
      "Ġcand": 8340,
      "Ġcurrency": 8341,
      "ĠBudget": 8342,
      "ĠBelieve": 8343,
      "ĠFOSS": 8344,
      "Ġtheme": 8345,
      "Ġbugs": 8346,
      "Ġbenchmark": 8347,
      "Ġpictures": 8348,
      "omas": 8349,
      "ĠLoc": 8350,
      "ĠLies": 8351,
      "ĠElement": 8352,
      "Ġmid": 8353,
      "Ġmice": 8354,
      "ĠNic": 8355,
      "ĠNiger": 8356,
      "Ġforced": 8357,
      "Ġforecast": 8358,
      "ooper": 8359,
      "ĠOK": 8360,
      "ĠOcc": 8361,
      "ĠOSS": 8362,
      "ĠOAuth": 8363,
      "oted": 8364,
      "ĠWhit": 8365,
      "Ġhom": 8366,
      "Ġhim": 8367,
      "Ġhomes": 8368,
      "employ": 8369,
      "Ġgirl": 8370,
      "opter": 8371,
      "ulf": 8372,
      "Ġrew": 8373,
      "ĠVert": 8374,
      "ĠVulnerabilities": 8375,
      "raising": 8376,
      "Ġstable": 8377,
      "ĠJer": 8378,
      "ĠJoe": 8379,
      "avour": 8380,
      "averse": 8381,
      "Ġthread": 8382,
      "ĠProbe": 8383,
      "Ġvulnerabilities": 8384,
      "ĠChannel": 8385,
      "ounting": 8386,
      "ĠKr": 8387,
      "ĠKim": 8388,
      "ĠKag": 8389,
      "ĠThousands": 8390,
      "ibaba": 8391,
      "actics": 8392,
      "ĠExtensions": 8393,
      "orms": 8394,
      "ansion": 8395,
      "ockets": 8396,
      "ĠSpain": 8397,
      "ĠUnp": 8398,
      "Ġchoice": 8399,
      "ĠAlibaba": 8400,
      "ensation": 8401,
      "ĠUsage": 8402,
      "ĠFaces": 8403,
      "Ġkick": 8404,
      "ĠBlow": 8405,
      "âĢĿ?": 8406,
      "ĠOpenC": 8407,
      "ĠOpening": 8408,
      "Ġprior": 8409,
      "ĠWeWork": 8410,
      "Ġheads": 8411,
      "ĠManufacturing": 8412,
      "ĠResume": 8413,
      "ĠZyn": 8414,
      "ĠQueries": 8415,
      "ĠRevis": 8416,
      "ĠLeaving": 8417,
      "ĠIndustrial": 8418,
      "apper": 8419,
      "apped": 8420,
      "Ġresume": 8421,
      "Ġdeveloped": 8422,
      "ĠDrives": 8423,
      "ĠModule": 8424,
      "ĠRealtime": 8425,
      "ĠCommod": 8426,
      "Ġroom": 8427,
      "Ġinterested": 8428,
      "Ġdepression": 8429,
      "ĠOutlook": 8430,
      "Ġmeasure": 8431,
      "ĠStrange": 8432,
      "ĠBitcoins": 8433,
      "ĠSwartz": 8434,
      "attack": 8435,
      "ĠPret": 8436,
      "othing": 8437,
      "othesis": 8438,
      "ĠCheat": 8439,
      "ĠArticles": 8440,
      "ĠWhole": 8441,
      "ĠExplo": 8442,
      "ĠExplain": 8443,
      "ĠExplains": 8444,
      "ĠGenerating": 8445,
      "ĠRemove": 8446,
      "ĠDecentralized": 8447,
      "ĠIntroduces": 8448,
      "ĠSkin": 8449,
      "hema": 8450,
      "ĠSolid": 8451,
      "anny": 8452,
      "ĠCreativity": 8453,
      "Ġdisrupt": 8454,
      "ĠIncident": 8455,
      "Ġtransport": 8456,
      "ĠMaybe": 8457,
      "ĠIntellectual": 8458,
      "oursquare": 8459,
      "Ġprotection": 8460,
      "scale": 8461,
      "Ġblocking": 8462,
      "ĠPasses": 8463,
      "ĠAntar": 8464,
      "Ġactivity": 8465,
      "ĠHealthcare": 8466,
      "ĠSimulation": 8467,
      "Ġinfect": 8468,
      "ĠGene": 8469,
      "ottest": 8470,
      "Ġmembers": 8471,
      "ĠRobotic": 8472,
      "ĠPromises": 8473,
      "ammers": 8474,
      "ĠDepartment": 8475,
      "ĠSync": 8476,
      "Ġmetrics": 8477,
      "Ġmicros": 8478,
      "Ġspecies": 8479,
      "ĠConcurrency": 8480,
      "liance": 8481,
      "ĠKnown": 8482,
      "ĠExtreme": 8483,
      "ĠDeployment": 8484,
      "Ġarrested": 8485,
      "Ġoperating": 8486,
      "ĠBillionaire": 8487,
      "Ġneutrality": 8488,
      "ĠLimit": 8489,
      "ĠFoods": 8490,
      "Ġpractical": 8491,
      "Ġeasily": 8492,
      "ĠFactor": 8493,
      "ĠDocumentary": 8494,
      "Ġidentity": 8495,
      "ometimes": 8496,
      "Ġhyper": 8497,
      "Ġhybrid": 8498,
      "Ġremoved": 8499,
      "piracy": 8500,
      "ĠPanel": 8501,
      "ĠStreams": 8502,
      "ĠSeeking": 8503,
      "ĠCollaboration": 8504,
      "ĠAffordable": 8505,
      "ĠPoker": 8506,
      "ĠReturns": 8507,
      "ĠMirror": 8508,
      "Ġcollaboration": 8509,
      "ĠMigrating": 8510,
      "ĠGarbage": 8511,
      "ĠProperty": 8512,
      "ĠBirthday": 8513,
      "ĠGirls": 8514,
      "aluating": 8515,
      "roscience": 8516,
      "ĠToyota": 8517,
      "ĠGDPR": 8518,
      "ĠFebruary": 8519,
      "ĠMillennials": 8520,
      "Ġillegal": 8521,
      "Ġrecruit": 8522,
      "ĠTerraform": 8523,
      "crastination": 8524,
      "width": 8525,
      "ĠWikileaks": 8526,
      "39": 8527,
      "Af": 8528,
      "Bit": 8529,
      "Core": 8530,
      "CSS": 8531,
      "NS": 8532,
      "No": 8533,
      "Open": 8534,
      "Per": 8535,
      "Point": 8536,
      "Res": 8537,
      "Sign": 8538,
      "Video": 8539,
      "bound": 8540,
      "bots": 8541,
      "de": 8542,
      "design": 8543,
      "draw": 8544,
      "front": 8545,
      "game": 8546,
      "hatt": 8547,
      "ias": 8548,
      "kan": 8549,
      "maker": 8550,
      "nm": 8551,
      "new": 8552,
      "sl": 8553,
      "sible": 8554,
      "tain": 8555,
      "tml": 8556,
      "worth": 8557,
      "ï¼": 8558,
      "Ġicon": 8559,
      "Ġerr": 8560,
      "inated": 8561,
      "Ġterror": 8562,
      "orp": 8563,
      "ĠSE": 8564,
      "ĠSU": 8565,
      "ĠSach": 8566,
      "ĠSue": 8567,
      "ĠSensor": 8568,
      "enge": 8569,
      "ĠCir": 8570,
      "ĠCache": 8571,
      "ĠCalling": 8572,
      "start": 8573,
      "ĠHQ": 8574,
      "ĠHuge": 8575,
      "rey": 8576,
      "Ġfine": 8577,
      "Ġfont": 8578,
      "ĠPf": 8579,
      "ĠPit": 8580,
      "ĠPink": 8581,
      "ĠPilot": 8582,
      "ĠPuzzle": 8583,
      "ĠMM": 8584,
      "ĠMort": 8585,
      "ĠMond": 8586,
      "Ġtom": 8587,
      "ĠIRC": 8588,
      "ĠDu": 8589,
      "ĠDue": 8590,
      "ĠDiffer": 8591,
      "Ġsure": 8592,
      "Ġchem": 8593,
      "ĠBell": 8594,
      "ĠByp": 8595,
      "ĠBoss": 8596,
      "ĠBeware": 8597,
      "Ġopinion": 8598,
      "Ġworry": 8599,
      "isdom": 8600,
      "ĠFan": 8601,
      "ĠFuel": 8602,
      "ĠFPG": 8603,
      "ĠRand": 8604,
      "ĠRSA": 8605,
      "Ġinjection": 8606,
      "Ġbid": 8607,
      "Ġbrief": 8608,
      "Ġpays": 8609,
      "ĠGem": 8610,
      "ĠGender": 8611,
      "illy": 8612,
      "Ġdot": 8613,
      "ĠLack": 8614,
      "ĠLux": 8615,
      "ĠLists": 8616,
      "ĠEff": 8617,
      "ĠEcl": 8618,
      "Ġmor": 8619,
      "Ġmand": 8620,
      "Ġmur": 8621,
      "Ġmakers": 8622,
      "ecure": 8623,
      "ĠNano": 8624,
      "Ġandroid": 8625,
      "ĠOthers": 8626,
      "igures": 8627,
      "uting": 8628,
      "olation": 8629,
      "ourse": 8630,
      "ĠInput": 8631,
      "Ġliter": 8632,
      "Ġonce": 8633,
      "Ġnav": 8634,
      "ĠStaff": 8635,
      "ulated": 8636,
      "ĠVers": 8637,
      "ods": 8638,
      "ĠShr": 8639,
      "ĠShared": 8640,
      "Ġstation": 8641,
      "eardown": 8642,
      "abil": 8643,
      "ĠJump": 8644,
      "upal": 8645,
      "ifting": 8646,
      "iph": 8647,
      "osqu": 8648,
      "ĠReference": 8649,
      "ĠCharts": 8650,
      "ĠKilled": 8651,
      "Ġanonymous": 8652,
      "ĠThomas": 8653,
      "Ġproduce": 8654,
      "ogen": 8655,
      "Ġru": 8656,
      "Ġrent": 8657,
      "Ġransomware": 8658,
      "plays": 8659,
      "pload": 8660,
      "asts": 8661,
      "sequ": 8662,
      "Ġbegins": 8663,
      "ĠExerc": 8664,
      "iki": 8665,
      "ĠSpending": 8666,
      "ĠUnt": 8667,
      "ĠUnlimited": 8668,
      "Ġexpensive": 8669,
      "ĠAmong": 8670,
      "pha": 8671,
      "ĠAlleg": 8672,
      "erved": 8673,
      "azing": 8674,
      "ĠForecast": 8675,
      "ĠFrank": 8676,
      "ĠNotifications": 8677,
      "ologist": 8678,
      "ĠEmulator": 8679,
      "ĠQuest": 8680,
      "ĠPhishing": 8681,
      "itioning": 8682,
      "ĠWorlds": 8683,
      "Ġemb": 8684,
      "Ġblue": 8685,
      "ermine": 8686,
      "ĠSuite": 8687,
      "ĠRecipe": 8688,
      "ĠBitTorrent": 8689,
      "ĠLinus": 8690,
      "ĠCommission": 8691,
      "ĠComputational": 8692,
      "Ġinterest": 8693,
      "ĠMonet": 8694,
      "ĠElm": 8695,
      "intech": 8696,
      "ĠDonald": 8697,
      "itchen": 8698,
      "ĠCrunch": 8699,
      "Ġremember": 8700,
      "Ġremotely": 8701,
      "ĠRussians": 8702,
      "ĠPrototyping": 8703,
      "Ġdisaster": 8704,
      "ĠNeg": 8705,
      "ĠInvestigation": 8706,
      "Ġgeneral": 8707,
      "ĠCycle": 8708,
      "Street": 8709,
      "Ġsearches": 8710,
      "ceptions": 8711,
      "Ġexploit": 8712,
      "ĠAdvis": 8713,
      "ĠMovement": 8714,
      "Ø§Ùĩ": 8715,
      "auth": 8716,
      "ĠMarc": 8717,
      "Ġsubscription": 8718,
      "Ġfinance": 8719,
      "Ġlogs": 8720,
      "Ġlogin": 8721,
      "Ġlogic": 8722,
      "ilerpl": 8723,
      "ĠWinter": 8724,
      "ĠJohnson": 8725,
      "ĠStackOver": 8726,
      "ĠStatement": 8727,
      "ĠAcquired": 8728,
      "ĠExpand": 8729,
      "ĠRequests": 8730,
      "ĠViews": 8731,
      "ĠFixing": 8732,
      "ĠÂ«": 8733,
      "ĠÂ»": 8734,
      "Ġcollapse": 8735,
      "Ġpresent": 8736,
      "ĠStandards": 8737,
      "ĠMercedes": 8738,
      "ĠImportance": 8739,
      "ĠØ¨": 8740,
      "ĠNavig": 8741,
      "ĠFactory": 8742,
      "ĠElectronics": 8743,
      "ittee": 8744,
      "Ġpublishing": 8745,
      "Ġremoves": 8746,
      "wareness": 8747,
      "ĠSentiment": 8748,
      "ĠCollaborative": 8749,
      "ĠCraigs": 8750,
      "itzer": 8751,
      "Ġlicense": 8752,
      "ĠConverter": 8753,
      "ĠSoftBank": 8754,
      "ĠSplit": 8755,
      "Ġbirthday": 8756,
      "breaking": 8757,
      "bitrary": 8758,
      "ĠPhysicists": 8759,
      "ĠAstronomers": 8760,
      "TeX": 8761,
      "ĠZynga": 8762,
      "ĠStackOverflow": 8763,
      "'?": 8764,
      ".,": 8765,
      "73": 8766,
      "Be": 8767,
      "Man": 8768,
      "Mod": 8769,
      "OU": 8770,
      "Pad": 8771,
      "Stop": 8772,
      "Torch": 8773,
      "boy": 8774,
      "car": 8775,
      "core": 8776,
      "dam": 8777,
      "fi": 8778,
      "gs": 8779,
      "here": 8780,
      "men": 8781,
      "mort": 8782,
      "ni": 8783,
      "night": 8784,
      "rs": 8785,
      "uations": 8786,
      "Ø¹": 8787,
      "à®": 8788,
      "Ġ,": 8789,
      "Ġå": 8790,
      "inity": 8791,
      "ato": 8792,
      "aters": 8793,
      "ĠSX": 8794,
      "ĠSus": 8795,
      "ĠSize": 8796,
      "ĠAD": 8797,
      "arily": 8798,
      "ena": 8799,
      "ĠTells": 8800,
      "ĠTDD": 8801,
      "ĠPle": 8802,
      "ĠPil": 8803,
      "ĠPaaS": 8804,
      "ĠPenn": 8805,
      "ĠPurch": 8806,
      "Ġauction": 8807,
      "ĠMit": 8808,
      "ĠMouse": 8809,
      "roit": 8810,
      "ĠWritten": 8811,
      "ĠIl": 8812,
      "ĠDom": 8813,
      "Ġsit": 8814,
      "Ġsells": 8815,
      "Ġcuts": 8816,
      "ĠBear": 8817,
      "ĠBiz": 8818,
      "ĠBrowsers": 8819,
      "ĠFal": 8820,
      "ĠFine": 8821,
      "ĠRing": 8822,
      "ĠRare": 8823,
      "ĠRos": 8824,
      "âĢĶ": 8825,
      "Ġboy": 8826,
      "Ġbelieve": 8827,
      "Ġposs": 8828,
      "Ġpapers": 8829,
      "Ġpicture": 8830,
      "Ġpuzzle": 8831,
      "Ġdiv": 8832,
      "ĠLev": 8833,
      "ĠLate": 8834,
      "ĠLuck": 8835,
      "ĠEs": 8836,
      "ĠEyes": 8837,
      "Ġmil": 8838,
      "Ġmine": 8839,
      "Ġmistakes": 8840,
      "Ġmoment": 8841,
      "Ġmatters": 8842,
      "ĠNS": 8843,
      "ĠNu": 8844,
      "ĠNaz": 8845,
      "idemic": 8846,
      "igion": 8847,
      "ĠUg": 8848,
      "cha": 8849,
      "Ġlists": 8850,
      "Ġones": 8851,
      "ewell": 8852,
      "ĠStone": 8853,
      "Ġhur": 8854,
      "agement": 8855,
      "Ġgam": 8856,
      "Ġgig": 8857,
      "Ġgun": 8858,
      "uler": 8859,
      "2022": 8860,
      "ĠVector": 8861,
      "ĠShape": 8862,
      "ĠAsh": 8863,
      "Ġstupid": 8864,
      "ĠJen": 8865,
      "istr": 8866,
      "istance": 8867,
      "ipment": 8868,
      "ĠProb": 8869,
      "ĠReform": 8870,
      "Ġvoting": 8871,
      "Ġvulnerable": 8872,
      "Ġancient": 8873,
      "ĠTherm": 8874,
      "ubb": 8875,
      "ighbor": 8876,
      "Ġprobe": 8877,
      "plane": 8878,
      "quer": 8879,
      "ellow": 8880,
      "ĠScraping": 8881,
      "Ġasks": 8882,
      "ĠClaim": 8883,
      "Ġshipping": 8884,
      "Ġextr": 8885,
      "Ġleast": 8886,
      "ĠAlgebra": 8887,
      "Ġcomparison": 8888,
      "ensus": 8889,
      "Ġtries": 8890,
      "ĠArc": 8891,
      "Ġplaces": 8892,
      "Ġplugins": 8893,
      "Ġscheme": 8894,
      "bleed": 8895,
      "Ġadults": 8896,
      "ypse": 8897,
      "ĠEmergency": 8898,
      "ĠQuora": 8899,
      "Ġalternatives": 8900,
      "Ġenables": 8901,
      "ĠAutop": 8902,
      "issa": 8903,
      "ĠMeg": 8904,
      "redible": 8905,
      "ĠCommons": 8906,
      "Ġdelete": 8907,
      "ĠOutage": 8908,
      "ĠElse": 8909,
      "ĠMacOS": 8910,
      "Ġrecent": 8911,
      "Ġmodular": 8912,
      "Ġdrugs": 8913,
      "ĠInstitute": 8914,
      "Ġimpl": 8915,
      "Ġdesigns": 8916,
      "Ġphil": 8917,
      "ĠDisp": 8918,
      "Ġflow": 8919,
      "ĠMinimum": 8920,
      "Ġdecline": 8921,
      "Ġdecentralized": 8922,
      "Ġprem": 8923,
      "Ġpreview": 8924,
      "Ġgradu": 8925,
      "ĠDeepMind": 8926,
      "ĠExperiments": 8927,
      "ĠInvestor": 8928,
      "ĠHelping": 8929,
      "ĠKeynote": 8930,
      "ĠPhotograph": 8931,
      "Ġhighly": 8932,
      "Ġinvestor": 8933,
      "ĠDeliver": 8934,
      "bridge": 8935,
      "ĠRegular": 8936,
      "uitton": 8937,
      "ĠMeetings": 8938,
      "ĠConfessions": 8939,
      "ĠStarlink": 8940,
      "Ġ2007": 8941,
      "Ġsignificant": 8942,
      "ĠProcessor": 8943,
      "Ġframeworks": 8944,
      "Ġhappy": 8945,
      "ĠPortal": 8946,
      "ĠGeo": 8947,
      "Ġselect": 8948,
      "Ġparallel": 8949,
      "ĠRobotics": 8950,
      "ĠOlder": 8951,
      "ĠRepublic": 8952,
      "ĠHoliday": 8953,
      "Ġshowing": 8954,
      "ERN": 8955,
      "Ġkeeps": 8956,
      "Ġclients": 8957,
      "ĠUkrain": 8958,
      "Ġbias": 8959,
      "ĠNFL": 8960,
      "havi": 8961,
      "Ġsync": 8962,
      "Ġmeetings": 8963,
      "ĠMonthly": 8964,
      "ĠConversion": 8965,
      "solete": 8966,
      "ĠSupports": 8967,
      "ĠMathematical": 8968,
      "ĠICO": 8969,
      "Ġidentify": 8970,
      "oshi": 8971,
      "piration": 8972,
      "Ġinternational": 8973,
      "ĠAnnual": 8974,
      "ĠChromium": 8975,
      "Ġchallenges": 8976,
      "Ġanimation": 8977,
      "Ġtargeted": 8978,
      "Ġdeployment": 8979,
      "Ġtreatment": 8980,
      "Ġmethods": 8981,
      "Ġrecommendations": 8982,
      "ĠEscape": 8983,
      "ĠCrowdfunding": 8984,
      "Ġestim": 8985,
      "ĠPressure": 8986,
      "Ġquickly": 8987,
      "iosity": 8988,
      "ĠSucks": 8989,
      "ĠISPs": 8990,
      "ĠTitan": 8991,
      "Ġsummer": 8992,
      "itiative": 8993,
      "ĠEnhance": 8994,
      "ĠOpportunity": 8995,
      "ĠConsumers": 8996,
      "ĠNorway": 8997,
      "Office": 8998,
      "ĠDependency": 8999,
      "Ġloan": 9000,
      "ertainty": 9001,
      "Ġcitizens": 9002,
      "ĠMcDonald": 9003,
      "Ġflexible": 9004,
      "ĠEclipse": 9005,
      "ĠCraigslist": 9006,
      "29": 9007,
      "55": 9008,
      "900": 9009,
      "CE": 9010,
      "Che": 9011,
      "Feed": 9012,
      "Life": 9013,
      "OW": 9014,
      "Pay": 9015,
      "SI": 9016,
      "build": 9017,
      "bucket": 9018,
      "cil": 9019,
      "ease": 9020,
      "fm": 9021,
      "fare": 9022,
      "hib": 9023,
      "hire": 9024,
      "lan": 9025,
      "lers": 9026,
      "lib": 9027,
      "lie": 9028,
      "lists": 9029,
      "rc": 9030,
      "resh": 9031,
      "yter": 9032,
      "ĠÃ": 9033,
      "Ġir": 9034,
      "inc": 9035,
      "inst": 9036,
      "erial": 9037,
      "Ġter": 9038,
      "anal": 9039,
      "ĠSter": 9040,
      "ĠSources": 9041,
      "ĠSaved": 9042,
      "ĠSugar": 9043,
      "ĠAims": 9044,
      "ĠAOL": 9045,
      "itched": 9046,
      "ĠTy": 9047,
      "ĠTet": 9048,
      "stal": 9049,
      "ĠHair": 9050,
      "Ġfalse": 9051,
      "ĠPicture": 9052,
      "Ġaf": 9053,
      "ĠMoment": 9054,
      "ĠWaste": 9055,
      "ĠWHO": 9056,
      "ĠIcel": 9057,
      "ĠDraft": 9058,
      "ĠDespite": 9059,
      "Ġsen": 9060,
      "Ġsus": 9061,
      "Ġsqu": 9062,
      "Ġspr": 9063,
      "Ġcle": 9064,
      "Ġclear": 9065,
      "Ġcelebr": 9066,
      "ĠBM": 9067,
      "Ġwra": 9068,
      "Ġwall": 9069,
      "Ġwave": 9070,
      "ĠFinger": 9071,
      "ĠFoursquare": 9072,
      "ĠRo": 9073,
      "ĠRouter": 9074,
      "Ġthemselves": 9075,
      "ethe": 9076,
      "eters": 9077,
      "ĠGro": 9078,
      "ĠGear": 9079,
      "ĠGone": 9080,
      "ĠGateway": 9081,
      "omal": 9082,
      "Ġoften": 9083,
      "ĠLum": 9084,
      "ĠLov": 9085,
      "ĠLee": 9086,
      "ĠLayer": 9087,
      "ĠEt": 9088,
      "ĠESP": 9089,
      "ĠEBay": 9090,
      "ĠEgg": 9091,
      "Ġmigr": 9092,
      "Ġmaterial": 9093,
      "ecamp": 9094,
      "ĠNik": 9095,
      "idates": 9096,
      "ĠOh": 9097,
      "ivile": 9098,
      "usable": 9099,
      "olic": 9100,
      "olis": 9101,
      "oto": 9102,
      "Ġnan": 9103,
      "Ġhol": 9104,
      "Ġhub": 9105,
      "estic": 9106,
      "Ġreaches": 9107,
      "oded": 9108,
      "odies": 9109,
      "ĠShadow": 9110,
      "raid": 9111,
      "ĠAsian": 9112,
      "abeth": 9113,
      "oca": 9114,
      "ĠJo": 9115,
      "ĠJud": 9116,
      "ĠJason": 9117,
      "ĠAnsible": 9118,
      "umes": 9119,
      "ategor": 9120,
      "ipes": 9121,
      "iller": 9122,
      "illiant": 9123,
      "Ġthanks": 9124,
      "aped": 9125,
      "ĠKhan": 9126,
      "Ġproof": 9127,
      "Ġproxy": 9128,
      "inding": 9129,
      "grades": 9130,
      "pty": 9131,
      "ĠScrew": 9132,
      "ĠScandal": 9133,
      "ĠSchedule": 9134,
      "ĠTracing": 9135,
      "ĠSpin": 9136,
      "ĠSpanish": 9137,
      "Ġshr": 9138,
      "ounds": 9139,
      "Ġexpected": 9140,
      "Ġexecution": 9141,
      "Ġchess": 9142,
      "Ġ29": 9143,
      "Ġ250": 9144,
      "Ġcompromised": 9145,
      "Ġspending": 9146,
      "Ġcluster": 9147,
      "Ġclosed": 9148,
      "overty": 9149,
      "ĠImper": 9150,
      "athering": 9151,
      "licated": 9152,
      "Ġworkflow": 9153,
      "ĠNotebook": 9154,
      "Ġcontest": 9155,
      "ĠFlick": 9156,
      "ificates": 9157,
      "ĠDrugs": 9158,
      "ĠDrupal": 9159,
      "Ġweight": 9160,
      "Ġweird": 9161,
      "ĠDesigns": 9162,
      "ĠRecy": 9163,
      "ĠAttract": 9164,
      "Ġquery": 9165,
      "ĠGitlab": 9166,
      "icted": 9167,
      "Ġallows": 9168,
      "ĠSmarter": 9169,
      "ĠUpcoming": 9170,
      "SSL": 9171,
      "Ġcommands": 9172,
      "ĠInsights": 9173,
      "ĠCrack": 9174,
      "ĠCracking": 9175,
      "Ġflights": 9176,
      "ĠSkill": 9177,
      "Ġcombin": 9178,
      "ĠProtest": 9179,
      "Ġgrant": 9180,
      "Ġgroups": 9181,
      "ĠJustice": 9182,
      "ĠNeil": 9183,
      "ĠNegot": 9184,
      "Ġrealtime": 9185,
      "Ġgenerated": 9186,
      "ĠOption": 9187,
      "ĠLesson": 9188,
      "Ġpartner": 9189,
      "ĠSubscription": 9190,
      "ĠSublime": 9191,
      "ĠApart": 9192,
      "ĠAdvantage": 9193,
      "Ġarticle": 9194,
      "ĠMembers": 9195,
      "Ø§ÙĨ": 9196,
      "Ġedge": 9197,
      "ĠDemocr": 9198,
      "ĠMario": 9199,
      "ĠInterviews": 9200,
      "ocalypse": 9201,
      "ĠConfirms": 9202,
      "ĠSimulator": 9203,
      "ĠSignals": 9204,
      "ĠBanking": 9205,
      "Ġphotograph": 9206,
      "Ġconfiguration": 9207,
      "Ġsea": 9208,
      "ĠControls": 9209,
      "ĠRaising": 9210,
      "ĠCurated": 9211,
      "Ġdebugging": 9212,
      "Ġupdated": 9213,
      "ĠBasecamp": 9214,
      "ĠKeeps": 9215,
      "Ġresponsive": 9216,
      "Ġbanking": 9217,
      "ĠSyndrome": 9218,
      "Ġshortage": 9219,
      "Ġbreakthrough": 9220,
      "aughter": 9221,
      "Spec": 9222,
      "eliev": 9223,
      "Ġchecks": 9224,
      "ĠMerge": 9225,
      "ĠDetroit": 9226,
      "xygen": 9227,
      "uke": 9228,
      "Ġrepo": 9229,
      "ĠFriendly": 9230,
      "Ġneu": 9231,
      "ĠFourth": 9232,
      "Ġfighting": 9233,
      "Ġpractice": 9234,
      "parent": 9235,
      "funded": 9236,
      "check": 9237,
      "ĠDreams": 9238,
      "ĠRoundup": 9239,
      "scriptions": 9240,
      "Engine": 9241,
      "Ġsatellites": 9242,
      "ĠAccelerator": 9243,
      "ĠConstruction": 9244,
      "Ġimproved": 9245,
      "Ġcontinue": 9246,
      "Ġbeginners": 9247,
      "Ġaddresses": 9248,
      "ĠDriverless": 9249,
      "ĠComplexity": 9250,
      "amentals": 9251,
      "ĠStarship": 9252,
      "ĠReinvent": 9253,
      "uggling": 9254,
      "Ġearn": 9255,
      "Ġsilicon": 9256,
      "Ġprovides": 9257,
      "Ġproviders": 9258,
      "ĠDiffusion": 9259,
      "elancers": 9260,
      "ĠCharging": 9261,
      "ĠQueue": 9262,
      "Ġticket": 9263,
      "Ġtickets": 9264,
      "keley": 9265,
      "ĠParser": 9266,
      "ĠParsing": 9267,
      "Ġcoverage": 9268,
      "ĠTicket": 9269,
      "Ġconsidered": 9270,
      "ĠMountain": 9271,
      "ĠBullet": 9272,
      "ĠPremium": 9273,
      "friendly": 9274,
      "ĠSyria": 9275,
      "ĠRobinhood": 9276,
      "ĠPfizer": 9277,
      "ĠBypass": 9278,
      "ĠSXSW": 9279,
      "ĠIceland": 9280,
      ".\"": 9281,
      "53": 9282,
      "Level": 9283,
      "PF": 9284,
      "PN": 9285,
      "Shell": 9286,
      "VR": 9287,
      "Watch": 9288,
      "aware": 9289,
      "bi": 9290,
      "bur": 9291,
      "bie": 9292,
      "bps": 9293,
      "bags": 9294,
      "eers": 9295,
      "elect": 9296,
      "fe": 9297,
      "graph": 9298,
      "iang": 9299,
      "iOS": 9300,
      "kin": 9301,
      "mes": 9302,
      "nical": 9303,
      "ple": 9304,
      "piring": 9305,
      "ras": 9306,
      "sign": 9307,
      "service": 9308,
      "wich": 9309,
      "yan": 9310,
      "yers": 9311,
      "Ä±": 9312,
      "Ð¸": 9313,
      "Ġid": 9314,
      "inar": 9315,
      "inch": 9316,
      "onight": 9317,
[...]
